<unk>	0
<s>	0
</s>	0
[PAD]	0
[CLS]	0
[SEP]	0
[MASK]	0
▁t	-0
▁a	-1
he	-2
▁i	-3
▁I	-4
ou	-5
▁s	-6
re	-7
▁w	-8
on	-9
in	-10
▁the	-11
ha	-12
▁b	-13
er	-14
▁m	-15
nd	-16
▁f	-17
▁is	-18
▁c	-19
▁d	-20
or	-21
▁n	-22
ot	-23
▁to	-24
▁y	-25
es	-26
ing	-27
▁l	-28
ll	-29
▁you	-30
an	-31
ve	-32
hat	-33
▁p	-34
it	-35
en	-36
▁T	-37
▁o	-38
is	-39
ar	-40
▁and	-41
▁g	-42
▁it	-43
ed	-44
at	-45
▁be	-46
as	-47
om	-48
ow	-49
▁not	-50
ic	-51
le	-52
▁ha	-53
▁that	-54
▁of	-55
us	-56
▁in	-57
ld	-58
▁on	-59
ay	-60
oo	-61
▁he	-62
▁h	-63
ke	-64
▁S	-65
▁th	-66
▁The	-67
▁do	-68
ut	-69
▁e	-70
ver	-71
▁re	-72
ie	-73
ould	-74
▁are	-75
et	-76
▁Y	-77
▁M	-78
ly	-79
id	-80
▁H	-81
▁A	-82
ion	-83
▁have	-84
▁li	-85
▁B	-86
al	-87
▁an	-88
im	-89
ac	-90
▁W	-91
▁was	-92
▁C	-93
▁for	-94
am	-95
ill	-96
gh	-97
ir	-98
▁D	-99
ad	-100
▁but	-101
ong	-102
st	-103
▁mo	-104
▁It	-105
▁"	-106
un	-107
all	-108
ch	-109
se	-110
▁am	-111
▁like	-112
▁k	-113
▁se	-114
▁P	-115
▁as	-116
▁You	-117
ith	-118
her	-119
▁my	-120
out	-121
ent	-122
▁me	-123
▁would	-124
▁we	-125
▁st	-126
▁can	-127
▁G	-128
▁with	-129
est	-130
▁L	-131
op	-132
▁song	-133
▁sh	-134
▁kn	-135
il	-136
▁N	-137
ce	-138
▁r	-139
ink	-140
▁know	-141
▁at	-142
ood	-143
ter	-144
very	-145
qu	-146
▁wh	-147
▁they	-148
ome	-149
use	-150
ct	-151
▁will	-152
▁J	-153
ite	-154
▁your	-155
▁su	-156
▁or	-157
ght	-158
▁R	-159
▁ne	-160
▁so	-161
ive	-162
▁fr	-163
▁al	-164
▁think	-165
▁F	-166
oy	-167
▁ab	-168
ry	-169
ist	-170
▁one	-171
ant	-172
ally	-173
ca	-174
ind	-175
ck	-176
pp	-177
▁mov	-178
▁lo	-179
▁He	-180
ro	-181
ur	-182
other	-183
and	-184
ust	-185
one	-186
ab	-187
▁j	-188
▁by	-189
▁good	-190
▁she	-191
ook	-192
▁go	-193
cause	-194
em	-195
th	-196
▁E	-197
um	-198
▁her	-199
▁this	-200
ge	-201
▁if	-202
▁O	-203
ul	-204
▁bel	-205
▁very	-206
▁en	-207
ight	-208
ers	-209
▁u	-210
ell	-211
▁them	-212
usic	-213
com	-214
ame	-215
ain	-216
▁qu	-217
▁because	-218
▁If	-219
▁v	-220
▁all	-221
▁any	-222
ate	-223
▁what	-224
▁music	-225
▁get	-226
▁about	-227
ig	-228
pe	-229
▁K	-230
▁has	-231
ieve	-232
▁from	-233
▁movie	-234
▁pl	-235
nt	-236
ime	-237
ess	-238
if	-239
ies	-240
▁believe	-241
ol	-242
▁love	-243
el	-244
▁man	-245
han	-246
▁whe	-247
ack	-248
▁ex	-249
av	-250
ard	-251
are	-252
art	-253
▁look	-254
▁did	-255
joy	-256
▁should	-257
▁his	-258
▁ma	-259
os	-260
▁enjoy	-261
ear	-262
▁out	-263
▁That	-264
act	-265
ation	-266
ire	-267
▁wor	-268
▁find	-269
▁some	-270
▁him	-271
reat	-272
▁un	-273
▁who	-274
▁there	-275
ound	-276
▁com	-277
own	-278
▁ch	-279
▁con	-280
od	-281
ri	-282
▁wat	-283
▁de	-284
ree	-285
▁They	-286
ide	-287
ast	-288
for	-289
▁My	-290
ick	-291
▁show	-292
▁don	-293
▁just	-294
▁want	-295
▁say	-296
ough	-297
ine	-298
ase	-299
ore	-300
ous	-301
eop	-302
ice	-303
▁1	-304
eople	-305
ond	-306
▁pro	-307
▁Yes	-308
▁more	-309
sw	-310
▁up	-311
ra	-312
▁no	-313
te	-314
fe	-315
▁No	-316
▁great	-317
estion	-318
▁pre	-319
▁really	-320
▁how	-321
▁answ	-322
▁people	-323
lo	-324
▁She	-325
▁time	-326
ure	-327
▁question	-328
ever	-329
▁play	-330
ny	-331
▁when	-332
tr	-333
▁other	-334
▁sa	-335
▁see	-336
▁Th	-337
▁does	-338
avor	-339
ber	-340
▁Do	-341
▁watch	-342
bs	-343
form	-344
▁best	-345
▁fun	-346
▁list	-347
▁then	-348
▁Wh	-349
▁favor	-350
▁le	-351
▁sing	-352
ah	-353
iend	-354
ven	-355
able	-356
▁could	-357
▁ag	-358
our	-359
▁act	-360
▁their	-361
▁sure	-362
irl	-363
lease	-364
king	-365
▁answer	-366
▁gu	-367
way	-368
hing	-369
▁fe	-370
pt	-371
▁had	-372
ue	-373
▁too	-374
."	-375
▁name	-376
ity	-377
▁down	-378
▁well	-379
▁There	-380
▁only	-381
uck	-382
so	-383
ish	-384
▁tw	-385
▁In	-386
ne	-387
▁ad	-388
▁cl	-389
▁were	-390
ud	-391
ag	-392
▁us	-393
tract	-394
▁ar	-395
▁than	-396
▁V	-397
▁U	-398
▁Ch	-399
ap	-400
uch	-401
▁need	-402
ose	-403
nder	-404
▁band	-405
irst	-406
▁bet	-407
▁Be	-408
▁songs	-409
▁po	-410
ble	-411
erson	-412
▁What	-413
▁much	-414
▁per	-415
ps	-416
▁every	-417
ss	-418
▁may	-419
▁te	-420
lf	-421
ace	-422
▁favorite	-423
▁app	-424
▁dis	-425
ock	-426
tractive	-427
int	-428
▁going	-429
tain	-430
▁person	-431
▁make	-432
▁webs	-433
▁tr	-434
red	-435
▁call	-436
ich	-437
arch	-438
ile	-439
ric	-440
▁heard	-441
ake	-442
▁try	-443
▁2	-444
▁old	-445
omet	-446
▁also	-447
▁listen	-448
▁thing	-449
ak	-450
▁This	-451
▁girl	-452
itt	-453
▁rem	-454
▁way	-455
fer	-456
ope	-457
▁St	-458
▁many	-459
▁never	-460
▁ask	-461
▁attractive	-462
iz	-463
ail	-464
oth	-465
mer	-466
▁comp	-467
ass	-468
ahoo	-469
per	-470
load	-471
▁friend	-472
▁Al	-473
".	-474
▁now	-475
▁still	-476
▁website	-477
▁How	-478
▁first	-479
ool	-480
ated	-481
ci	-482
▁under	-483
▁two	-484
ris	-485
▁somet	-486
▁year	-487
▁search	-488
▁bl	-489
▁ww	-490
▁been	-491
▁Your	-492
▁www	-493
thing	-494
▁better	-495
ty	-496
az	-497
▁said	-498
▁movies	-499
not	-500
▁mother	-501
ip	-502
ious	-503
ild	-504
self	-505
▁new	-506
ance	-507
iv	-508
▁funny	-509
ep	-510
▁sim	-511
▁sp	-512
▁most	-513
ost	-514
▁im	-515
har	-516
me	-517
▁day	-518
ave	-519
▁mean	-520
▁lot	-521
▁sound	-522
▁rec	-523
▁download	-524
▁inform	-525
▁Br	-526
oll	-527
ways	-528
▁even	-529
ang	-530
▁int	-531
ount	-532
▁Please	-533
ia	-534
ng	-535
rent	-536
ress	-537
▁hope	-538
▁cannot	-539
wn	-540
▁dif	-541
ought	-542
ary	-543
og	-544
▁gr	-545
▁tal	-546
▁work	-547
ade	-548
▁which	-549
au	-550
ff	-551
ob	-552
ertain	-553
ful	-554
▁br	-555
▁called	-556
▁however	-557
▁something	-558
▁dr	-559
ian	-560
age	-561
▁both	-562
▁over	-563
▁Jo	-564
ren	-565
▁che	-566
▁always	-567
ason	-568
hed	-569
▁part	-570
be	-571
ual	-572
ather	-573
ort	-574
▁ac	-575
ars	-576
▁pos	-577
ft	-578
ict	-579
vis	-580
▁aw	-581
▁wr	-582
rics	-583
kes	-584
pl	-585
▁hel	-586
▁seen	-587
▁point	-588
ilar	-589
▁Go	-590
▁Whe	-591
▁care	-592
▁tell	-593
▁ever	-594
fter	-595
▁use	-596
▁why	-597
▁off	-598
▁wom	-599
▁Yahoo	-600
▁able	-601
▁happ	-602
ult	-603
ove	-604
▁fil	-605
▁'	-606
▁op	-607
▁(	-608
▁looking	-609
▁information	-610
iss	-611
fore	-612
▁sc	-613
▁back	-614
▁read	-615
▁child	-616
ach	-617
man	-618
ember	-619
▁long	-620
rest	-621
▁We	-622
ord	-623
▁An	-624
▁big	-625
ark	-626
▁feel	-627
▁inc	-628
gg	-629
▁ly	-630
▁ent	-631
▁where	-632
..	-633
00	-634
uy	-635
▁Why	-636
▁own	-637
orn	-638
stand	-639
bum	-640
les	-641
▁give	-642
▁right	-643
wire	-644
▁bad	-645
ually	-646
▁such	-647
orre	-648
ull	-649
urn	-650
ince	-651
▁spe	-652
▁same	-653
ub	-654
▁Is	-655
▁though	-656
▁help	-657
oice	-658
▁got	-659
▁thought	-660
ike	-661
▁film	-662
orrect	-663
▁5	-664
▁sm	-665
▁album	-666
▁3	-667
▁jo	-668
▁ty	-669
▁fan	-670
▁things	-671
▁understand	-672
imes	-673
ise	-674
▁Bl	-675
▁De	-676
ily	-677
▁em	-678
▁perform	-679
▁guy	-680
io	-681
▁id	-682
▁agree	-683
ize	-684
▁made	-685
▁pr	-686
ix	-687
up	-688
▁anything	-689
oose	-690
ither	-691
ittle	-692
▁inte	-693
igh	-694
▁19	-695
▁art	-696
▁someone	-697
▁Se	-698
▁vide	-699
oog	-700
inion	-701
▁tele	-702
nds	-703
ves	-704
▁luck	-705
▁Are	-706
▁mat	-707
ew	-708
ens	-709
meric	-710
▁opinion	-711
day	-712
▁lyrics	-713
though	-714
ple	-715
▁boy	-716
ady	-717
ably	-718
▁add	-719
ites	-720
▁fam	-721
▁life	-722
▁seem	-723
▁before	-724
vision	-725
▁On	-726
▁real	-727
ory	-728
▁As	-729
▁must	-730
we	-731
orry	-732
▁res	-733
▁remember	-734
▁el	-735
ment	-736
▁free	-737
▁let	-738
▁rock	-739
▁ph	-740
reen	-741
ular	-742
get	-743
▁win	-744
▁When	-745
▁chan	-746
▁quite	-747
ence	-748
▁cont	-749
▁ke	-750
oney	-751
ried	-752
ction	-753
▁into	-754
▁poss	-755
augh	-756
oogle	-757
▁prefer	-758
▁certain	-759
aby	-760
ving	-761
▁cons	-762
▁here	-763
▁diffe	-764
▁similar	-765
▁years	-766
▁Sp	-767
▁des	-768
ition	-769
▁might	-770
▁please	-771
▁CD	-772
▁ser	-773
▁correct	-774
▁television	-775
onder	-776
fr	-777
app	-778
ute	-779
ait	-780
ream	-781
▁Americ	-782
▁interest	-783
cha	-784
▁points	-785
ting	-786
bably	-787
▁looks	-788
▁Re	-789
▁found	-790
▁choose	-791
rd	-792
tern	-793
▁side	-794
▁while	-795
▁pur	-796
▁left	-797
▁wish	-798
iew	-799
▁num	-800
▁Good	-801
ring	-802
▁after	-803
▁loc	-804
▁again	-805
▁char	-806
▁last	-807
▁used	-808
aw	-809
ody	-810
unk	-811
ating	-812
▁else	-813
▁nice	-814
son	-815
▁being	-816
led	-817
▁Me	-818
...	-819
▁Cl	-820
▁att	-821
▁end	-822
▁sex	-823
cer	-824
▁Fr	-825
▁lar	-826
gr	-827
▁imp	-828
▁mar	-829
▁artist	-830
▁saw	-831
▁Who	-832
imewire	-833
▁However	-834
▁Day	-835
▁-	-836
ode	-837
ons	-838
pis	-839
▁yet	-840
▁take	-841
▁rel	-842
ign	-843
▁Try	-844
▁type	-845
▁wonder	-846
▁watching	-847
▁All	-848
▁friends	-849
ney	-850
ible	-851
▁those	-852
xt	-853
ath	-854
haps	-855
▁little	-856
vers	-857
▁mom	-858
▁probably	-859
▁different	-860
ched	-861
▁word	-862
ouse	-863
▁rap	-864
ib	-865
uff	-866
▁pop	-867
oc	-868
▁hear	-869
hn	-870
old	-871
▁book	-872
▁three	-873
ug	-874
▁either	-875
ale	-876
ors	-877
▁woman	-878
▁ob	-879
▁check	-880
▁since	-881
ider	-882
isit	-883
▁For	-884
▁Not	-885
ife	-886
less	-887
ption	-888
▁another	-889
,"	-890
ash	-891
ased	-892
ately	-893
▁wait	-894
▁yourself	-895
▁But	-896
▁money	-897
▁questions	-898
▁Le	-899
▁epis	-900
▁anyone	-901
▁hum	-902
▁squ	-903
▁number	-904
▁Un	-905
▁video	-906
▁Because	-907
▁Just	-908
▁home	-909
itar	-910
▁Boy	-911
▁dec	-912
▁ide	-913
▁John	-914
▁hard	-915
▁large	-916
▁exce	-917
du	-918
na	-919
fin	-920
▁men	-921
▁Chris	-922
▁purcha	-923
cc	-924
▁count	-925
",	-926
▁Z	-927
tty	-928
The	-929
ton	-930
▁Sh	-931
friend	-932
▁American	-933
▁gen	-934
acter	-935
▁sounds	-936
anc	-937
ial	-938
ames	-939
▁sha	-940
▁come	-941
▁4	-942
der	-943
▁To	-944
▁av	-945
▁sec	-946
▁singer	-947
▁character	-948
ph	-949
▁live	-950
▁below	-951
▁Limewire	-952
ked	-953
▁put	-954
▁str	-955
▁Some	-956
aut	-957
ready	-958
▁didn	-959
▁start	-960
▁around	-961
sh	-962
ply	-963
mend	-964
▁buy	-965
▁incl	-966
icture	-967
▁young	-968
▁ind	-969
▁supp	-970
▁recom	-971
ts	-972
▁One	-973
▁head	-974
▁already	-975
▁fl	-976
ares	-977
ning	-978
▁Jack	-979
▁makes	-980
▁reason	-981
▁everyone	-982
ied	-983
▁says	-984
▁recommend	-985
▁Did	-986
▁ass	-987
▁guess	-988
ote	-989
▁Man	-990
▁Mar	-991
▁high	-992
▁Green	-993
▁hot	-994
▁appear	-995
ole	-996
▁tit	-997
▁disc	-998
ner	-999
▁Well	-1000
▁hair	-1001
▁class	-1002
▁without	-1003
▁Per	-1004
▁bec	-1005
▁cur	-1006
▁site	-1007
▁blond	-1008
▁inst	-1009
▁Google	-1010
br	-1011
dd	-1012
ox	-1013
ude	-1014
▁May	-1015
▁Sim	-1016
▁enjoyed	-1017
ings	-1018
ister	-1019
▁Love	-1020
▁happen	-1021
▁children	-1022
ks	-1023
zy	-1024
ired	-1025
▁acc	-1026
▁Have	-1027
▁doing	-1028
vent	-1029
▁God	-1030
▁keep	-1031
▁rece	-1032
▁sugg	-1033
▁others	-1034
▁watched	-1035
ited	-1036
▁picture	-1037
chool	-1038
▁times	-1039
▁pretty	-1040
▁squares	-1041
arry	-1042
olog	-1043
▁Tom	-1044
▁met	-1045
▁sur	-1046
▁thr	-1047
▁view	-1048
▁voice	-1049
oon	-1050
▁10	-1051
aris	-1052
ical	-1053
▁mon	-1054
▁sorry	-1055
▁Sc	-1056
▁And	-1057
fort	-1058
▁Can	-1059
▁won	-1060
▁depe	-1061
▁sign	-1062
▁Although	-1063
ten	-1064
als	-1065
ird	-1066
▁Cr	-1067
▁Don	-1068
ternet	-1069
fic	-1070
▁At	-1071
vious	-1072
▁once	-1073
gin	-1074
▁Che	-1075
▁hat	-1076
▁baby	-1077
▁idea	-1078
▁doesn	-1079
▁guitar	-1080
ourse	-1081
▁defin	-1082
▁second	-1083
ger	-1084
▁kind	-1085
▁pick	-1086
▁refer	-1087
air	-1088
▁night	-1089
▁place	-1090
▁visit	-1091
▁grou	-1092
ates	-1093
▁played	-1094
▁Ar	-1095
▁Fl	-1096
peri	-1097
▁New	-1098
ently	-1099
itely	-1100
idd	-1101
like	-1102
▁Ste	-1103
▁ter	-1104
▁true	-1105
▁laugh	-1106
sp	-1107
▁ap	-1108
▁cr	-1109
gram	-1110
▁exc	-1111
▁cool	-1112
▁went	-1113
▁Paris	-1114
▁playing	-1115
adio	-1116
here	-1117
rist	-1118
▁Girl	-1119
▁aware	-1120
▁women	-1121
▁talent	-1122
ina	-1123
▁Ke	-1124
▁fem	-1125
▁uns	-1126
ele	-1127
▁next	-1128
ect	-1129
▁So	-1130
elly	-1131
ense	-1132
▁bands	-1133
▁wrong	-1134
▁program	-1135
▁suggest	-1136
▁9	-1137
▁Tr	-1138
▁sk	-1139
reak	-1140
ention	-1141
?"	-1142
kay	-1143
▁Every	-1144
▁likely	-1145
ane	-1146
ese	-1147
▁TV	-1148
▁bit	-1149
ans	-1150
▁sl	-1151
▁ext	-1152
ality	-1153
▁receive	-1154
▁talking	-1155
ork	-1156
▁Em	-1157
▁few	-1158
▁stop	-1159
▁vers	-1160
▁seems	-1161
▁done	-1162
▁kill	-1163
▁sings	-1164
▁using	-1165
▁record	-1166
▁season	-1167
ek	-1168
ows	-1169
▁fin	-1170
▁Rock	-1171
▁asked	-1172
▁these	-1173
▁actually	-1174
my	-1175
ones	-1176
▁amaz	-1177
▁world	-1178
▁diffic	-1179
hes	-1180
▁Pl	-1181
▁Su	-1182
ater	-1183
▁away	-1184
▁item	-1185
▁beaut	-1186
▁dance	-1187
▁enough	-1188
empt	-1189
▁Car	-1190
▁simply	-1191
eg	-1192
▁6	-1193
ica	-1194
▁Oh	-1195
body	-1196
▁His	-1197
▁Here	-1198
▁matter	-1199
0'	-1200
ket	-1201
res	-1202
xual	-1203
▁age	-1204
▁hor	-1205
▁lear	-1206
▁Gr	-1207
iful	-1208
ster	-1209
upid	-1210
▁course	-1211
▁father	-1212
▁myself	-1213
▁nothing	-1214
▁listening	-1215
▁Id	-1216
▁eas	-1217
ative	-1218
▁Will	-1219
▁group	-1220
▁school	-1221
▁trying	-1222
▁episode	-1223
▁8	-1224
eal	-1225
ins	-1226
▁email	-1227
▁produ	-1228
▁shows	-1229
▁apolog	-1230
▁blonde	-1231
▁choice	-1232
▁concer	-1233
▁sister	-1234
ili	-1235
ward	-1236
▁reg	-1237
ature	-1238
▁girls	-1239
▁Perhaps	-1240
▁internet	-1241
▁purchase	-1242
▁definitely	-1243
▁es	-1244
▁Mic	-1245
▁ear	-1246
uring	-1247
▁fact	-1248
▁five	-1249
▁spell	-1250
ced	-1251
ene	-1252
▁unt	-1253
▁miss	-1254
▁rele	-1255
▁consider	-1256
▁everything	-1257
ier	-1258
its	-1259
▁DV	-1260
▁ten	-1261
▁doll	-1262
▁four	-1263
▁getting	-1264
▁favorites	-1265
▁Q	-1266
key	-1267
▁country	-1268
ities	-1269
ailable	-1270
ung	-1271
line	-1272
▁min	-1273
▁top	-1274
▁each	-1275
▁mind	-1276
▁phone	-1277
▁comple	-1278
▁popular	-1279
ics	-1280
pect	-1281
▁Now	-1282
▁far	-1283
rible	-1284
gether	-1285
▁together	-1286
▁difficult	-1287
▁available	-1288
ved	-1289
blem	-1290
▁DVD	-1291
▁its	-1292
▁pay	-1293
▁ret	-1294
▁joke	-1295
ump	-1296
vel	-1297
where	-1298
▁until	-1299
▁rather	-1300
▁series	-1301
▁amazing	-1302
▁version	-1303
ush	-1304
▁leg	-1305
aking	-1306
▁humor	-1307
▁Christ	-1308
▁having	-1309
by	-1310
aid	-1311
igin	-1312
▁ago	-1313
▁Than	-1314
▁foll	-1315
▁stupid	-1316
▁problem	-1317
▁Her	-1318
▁Sha	-1319
▁actor	-1320
▁means	-1321
ov	-1322
lect	-1323
peci	-1324
▁Bill	-1325
▁learn	-1326
▁liked	-1327
▁wanted	-1328
▁referring	-1329
▁50	-1330
ents	-1331
▁cra	-1332
▁eng	-1333
esome	-1334
▁Idol	-1335
▁prov	-1336
▁beautiful	-1337
▁Or	-1338
amed	-1339
▁hom	-1340
using	-1341
!"	-1342
▁&	-1343
oot	-1344
more	-1345
▁isn	-1346
▁turn	-1347
▁partic	-1348
▁brother	-1349
▁current	-1350
▁married	-1351
▁Mr	-1352
▁sit	-1353
▁yes	-1354
▁option	-1355
▁interesting	-1356
▁air	-1357
▁car	-1358
▁ins	-1359
▁told	-1360
▁radio	-1361
▁origin	-1362
▁unsure	-1363
▁enjoyable	-1364
ana	-1365
ids	-1366
ley	-1367
▁Am	-1368
▁Mc	-1369
ange	-1370
ther	-1371
uter	-1372
▁Let	-1373
▁dog	-1374
fortun	-1375
▁After	-1376
▁order	-1377
▁asking	-1378
▁recall	-1379
▁depends	-1380
▁came	-1381
▁send	-1382
▁become	-1383
▁through	-1384
dy	-1385
▁$	-1386
ank	-1387
ott	-1388
elebr	-1389
ellig	-1390
▁gets	-1391
▁mess	-1392
ically	-1393
▁happy	-1394
▁female	-1395
pecially	-1396
▁Ne	-1397
▁gay	-1398
llent	-1399
▁Ange	-1400
▁resp	-1401
▁wife	-1402
▁performed	-1403
▁ey	-1404
irth	-1405
leep	-1406
▁rest	-1407
▁least	-1408
▁apologize	-1409
ama	-1410
▁El	-1411
▁Sm	-1412
▁mag	-1413
▁King	-1414
ations	-1415
▁store	-1416
▁attempt	-1417
▁awesome	-1418
▁singing	-1419
▁although	-1420
alk	-1421
ivid	-1422
ower	-1423
pris	-1424
rence	-1425
▁full	-1426
▁link	-1427
▁released	-1428
▁excellent	-1429
▁wonderful	-1430
▁Pa	-1431
▁Pe	-1432
▁Tw	-1433
▁Out	-1434
▁cle	-1435
▁cute	-1436
▁hate	-1437
▁often	-1438
ret	-1439
atch	-1440
ered	-1441
▁eat	-1442
▁Maybe	-1443
▁possible	-1444
▁thinking	-1445
ces	-1446
umb	-1447
tend	-1448
ween	-1449
▁cou	-1450
quire	-1451
▁loved	-1452
▁older	-1453
▁family	-1454
oub	-1455
▁Of	-1456
cial	-1457
fect	-1458
ling	-1459
▁sad	-1460
osexual	-1461
▁celebr	-1462
▁experi	-1463
▁longer	-1464
yle	-1465
▁co	-1466
ants	-1467
ions	-1468
land	-1469
▁Then	-1470
▁case	-1471
▁conf	-1472
▁days	-1473
▁named	-1474
▁dislike	-1475
▁computer	-1476
▁Ph	-1477
most	-1478
▁Big	-1479
▁Ind	-1480
▁due	-1481
▁First	-1482
▁month	-1483
▁saying	-1484
outh	-1485
▁Hell	-1486
▁Look	-1487
▁click	-1488
▁unable	-1489
nel	-1490
ues	-1491
▁Ge	-1492
▁Te	-1493
ness	-1494
▁mem	-1495
▁star	-1496
▁Black	-1497
▁Harry	-1498
▁title	-1499
▁includ	-1500
▁individ	-1501
att	-1502
▁fond	-1503
▁begin	-1504
▁haven	-1505
▁words	-1506
co	-1507
ead	-1508
uss	-1509
reet	-1510
▁mine	-1511
▁okay	-1512
▁Music	-1513
▁especially	-1514
▁homosexual	-1515
enn	-1516
lor	-1517
lish	-1518
▁200	-1519
▁Cha	-1520
▁Dis	-1521
▁run	-1522
▁lime	-1523
▁entire	-1524
▁follow	-1525
▁between	-1526
ik	-1527
▁ca	-1528
▁col	-1529
▁fat	-1530
▁occ	-1531
▁game	-1532
▁Sorry	-1533
▁appre	-1534
▁black	-1535
▁maybe	-1536
gn	-1537
ler	-1538
▁ro	-1539
cept	-1540
▁Most	-1541
▁Micha	-1542
▁individual	-1543
oss	-1544
▁Sl	-1545
▁af	-1546
ross	-1547
▁Com	-1548
▁Wow	-1549
▁ill	-1550
▁six	-1551
ident	-1552
▁goes	-1553
▁dream	-1554
ys	-1555
ume	-1556
ject	-1557
▁exp	-1558
iliar	-1559
▁Johnny	-1560
▁Michael	-1561
▁appreci	-1562
▁quality	-1563
▁interested	-1564
▁7	-1565
▁X	-1566
ages	-1567
▁Eng	-1568
▁cop	-1569
▁soon	-1570
▁Kelly	-1571
▁contin	-1572
▁complete	-1573
uc	-1574
ipp	-1575
ibly	-1576
▁Bob	-1577
▁Hil	-1578
▁rep	-1579
aster	-1580
▁stuff	-1581
▁coming	-1582
▁return	-1583
▁answers	-1584
▁surpris	-1585
ax	-1586
▁Dr	-1587
osed	-1588
oubt	-1589
reme	-1590
▁Tay	-1591
▁bus	-1592
▁pass	-1593
▁birth	-1594
▁online	-1595
▁certainly	-1596
bay	-1597
ont	-1598
▁Dan	-1599
▁week	-1600
▁known	-1601
▁stand	-1602
▁People	-1603
▁address	-1604
▁suppose	-1605
▁boyfriend	-1606
▁Ex	-1607
unes	-1608
▁198	-1609
▁Get	-1610
▁inv	-1611
▁our	-1612
▁With	-1613
▁rese	-1614
▁comes	-1615
▁tried	-1616
▁limewire	-1617
any	-1618
▁et	-1619
ific	-1620
raph	-1621
▁Nor	-1622
▁det	-1623
▁Star	-1624
▁talk	-1625
▁Where	-1626
▁drink	-1627
▁almost	-1628
elligent	-1629
▁particular	-1630
inem	-1631
orge	-1632
▁Pro	-1633
▁Paul	-1634
▁date	-1635
▁.	-1636
band	-1637
ored	-1638
▁ann	-1639
▁expl	-1640
▁Angel	-1641
▁hands	-1642
▁worth	-1643
▁Taylor	-1644
iot	-1645
▁Pot	-1646
▁die	-1647
▁hit	-1648
▁red	-1649
▁knew	-1650
▁move	-1651
▁ones	-1652
▁Brown	-1653
▁talented	-1654
).	-1655
ron	-1656
row	-1657
▁Ro	-1658
ives	-1659
vice	-1660
▁Joe	-1661
▁bro	-1662
▁sub	-1663
▁beat	-1664
▁cart	-1665
▁rapp	-1666
▁wear	-1667
▁amusing	-1668
▁dollars	-1669
rop	-1670
▁Was	-1671
▁etc	-1672
astic	-1673
▁Also	-1674
▁Fall	-1675
▁punk	-1676
▁story	-1677
▁anymore	-1678
▁extreme	-1679
ma	-1680
ides	-1681
odes	-1682
▁son	-1683
▁Char	-1684
▁Even	-1685
▁Park	-1686
▁exam	-1687
▁less	-1688
▁works	-1689
viously	-1690
▁girlfriend	-1691
aken	-1692
▁Met	-1693
▁nor	-1694
itive	-1695
▁comm	-1696
▁guys	-1697
▁past	-1698
▁house	-1699
▁metal	-1700
aughter	-1701
▁videos	-1702
▁pe	-1703
ship	-1704
weet	-1705
▁Any	-1706
▁job	-1707
▁hand	-1708
▁Thank	-1709
▁appro	-1710
▁crazy	-1711
▁fight	-1712
▁today	-1713
▁Jackson	-1714
▁instead	-1715
▁possess	-1716
fortunately	-1717
utes	-1718
oring	-1719
▁male	-1720
▁post	-1721
▁creat	-1722
▁doubt	-1723
▁event	-1724
▁leave	-1725
▁set	-1726
▁dead	-1727
▁activ	-1728
▁famous	-1729
▁currently	-1730
▁entertain	-1731
'.	-1732
uth	-1733
▁Ad	-1734
▁sw	-1735
▁tra	-1736
▁hour	-1737
▁pres	-1738
▁stay	-1739
▁attend	-1740
ilarious	-1741
▁relation	-1742
▁terrible	-1743
▁appreciate	-1744
to	-1745
een	-1746
▁adm	-1747
▁Jess	-1748
▁coll	-1749
ensive	-1750
▁While	-1751
▁exact	-1752
▁exist	-1753
▁making	-1754
▁feature	-1755
▁familiar	-1756
hy	-1757
oop	-1758
oud	-1759
ugs	-1760
▁Lo	-1761
▁gl	-1762
icks	-1763
ines	-1764
▁bar	-1765
▁typ	-1766
▁cost	-1767
▁danc	-1768
▁sang	-1769
▁Chuck	-1770
▁genre	-1771
▁sleep	-1772
▁small	-1773
▁Potter	-1774
▁looked	-1775
▁actress	-1776
▁strange	-1777
oke	-1778
urt	-1779
head	-1780
lose	-1781
earch	-1782
▁Down	-1783
▁face	-1784
▁couple	-1785
▁extremely	-1786
ara	-1787
uns	-1788
▁hu	-1789
used	-1790
▁cha	-1791
arent	-1792
▁Boys	-1793
▁Super	-1794
▁heart	-1795
▁musical	-1796
▁perhaps	-1797
TV	-1798
edy	-1799
ted	-1800
▁Pr	-1801
aven	-1802
ices	-1803
▁Mov	-1804
▁dire	-1805
▁plan	-1806
usband	-1807
▁needs	-1808
▁addition	-1809
▁humorous	-1810
enty	-1811
itch	-1812
unch	-1813
ility	-1814
▁Hill	-1815
▁situ	-1816
▁yell	-1817
▁thank	-1818
▁wants	-1819
▁daughter	-1820
▁happened	-1821
▁original	-1822
ned	-1823
uly	-1824
aper	-1825
irty	-1826
▁Mon	-1827
▁abs	-1828
iddle	-1829
right	-1830
▁Best	-1831
▁magaz	-1832
▁speak	-1833
▁player	-1834
▁hilarious	-1835
amp	-1836
ips	-1837
med	-1838
rew	-1839
ians	-1840
sing	-1841
view	-1842
▁Lil	-1843
▁Brit	-1844
▁half	-1845
▁near	-1846
▁Check	-1847
▁accept	-1848
▁husband	-1849
▁searching	-1850
▁experience	-1851
▁By	-1852
cess	-1853
▁obs	-1854
entle	-1855
olute	-1856
space	-1857
▁Cent	-1858
▁Like	-1859
▁deal	-1860
▁eyes	-1861
lyrics	-1862
▁Would	-1863
▁write	-1864
▁amount	-1865
▁seeing	-1866
▁English	-1867
▁classic	-1868
▁Everyone	-1869
pr	-1870
▁̈	-1871
une	-1872
▁Bow	-1873
▁Jim	-1874
▁Way	-1875
yahoo	-1876
▁Baby	-1877
▁fine	-1878
▁kids	-1879
▁meet	-1880
▁sell	-1881
▁tast	-1882
▁vote	-1883
▁wasn	-1884
▁Hello	-1885
▁Simps	-1886
▁Eminem	-1887
▁change	-1888
▁channel	-1889
▁pictures	-1890
mp	-1891
gly	-1892
xic	-1893
ized	-1894
orld	-1895
ters	-1896
wood	-1897
▁199	-1898
▁Spe	-1899
▁hip	-1900
▁inf	-1901
▁wal	-1902
amily	-1903
▁anim	-1904
ograph	-1905
▁break	-1906
▁artists	-1907
▁himself	-1908
▁location	-1909
▁positive	-1910
▁sometimes	-1911
ee	-1912
ky	-1913
avy	-1914
eth	-1915
ales	-1916
olly	-1917
▁unc	-1918
ccess	-1919
▁Life	-1920
▁easy	-1921
▁shot	-1922
▁House	-1923
▁sense	-1924
▁white	-1925
▁boring	-1926
▁moment	-1927
iel	-1928
akes	-1929
▁Dav	-1930
▁bre	-1931
▁hop	-1932
ement	-1933
▁forg	-1934
▁inter	-1935
▁likes	-1936
▁George	-1937
▁chance	-1938
▁wouldn	-1939
bo	-1940
ey	-1941
Pod	-1942
irt	-1943
vil	-1944
vin	-1945
edia	-1946
ully	-1947
▁Ell	-1948
▁fre	-1949
▁copy	-1950
▁died	-1951
▁door	-1952
▁fair	-1953
▁fall	-1954
▁line	-1955
▁James	-1956
▁yahoo	-1957
▁during	-1958
▁google	-1959
▁mention	-1960
▁episodes	-1961
andy	-1962
▁Mad	-1963
▁Pet	-1964
▁ple	-1965
▁Beat	-1966
▁Does	-1967
▁Luck	-1968
▁born	-1969
▁fant	-1970
▁fool	-1971
▁close	-1972
▁items	-1973
▁jokes	-1974
▁plays	-1975
▁style	-1976
▁Little	-1977
▁engine	-1978
▁regard	-1979
▁strong	-1980
▁recently	-1981
▁situation	-1982
ai	-1983
mb	-1984
ify	-1985
ony	-1986
▁Ey	-1987
ball	-1988
onna	-1989
▁Cru	-1990
▁Sam	-1991
aught	-1992
ropri	-1993
▁kiss	-1994
▁sexy	-1995
▁annoy	-1996
▁films	-1997
▁spend	-1998
▁obtain	-1999
▁impress	-2000
▁include	-2001
▁relationship	-2002
vi	-2003
ald	-2004
edd	-2005
▁18	-2006
ared	-2007
inds	-2008
▁Add	-2009
ished	-2010
iting	-2011
▁area	-2012
▁open	-2013
▁Movie	-2014
▁super	-2015
▁Search	-2016
▁desire	-2017
▁gentle	-2018
▁import	-2019
▁titled	-2020
▁appears	-2021
▁located	-2022
▁usually	-2023
▁websites	-2024
You	-2025
ats	-2026
iam	-2027
lic	-2028
lin	-2029
orp	-2030
rag	-2031
▁Con	-2032
▁MTV	-2033
▁sca	-2034
▁vot	-2035
▁Pink	-2036
▁hold	-2037
▁pain	-2038
▁ugly	-2039
▁Girls	-2040
olutely	-2041
▁Hilton	-2042
▁forget	-2043
▁received	-2044
ms	-2045
ails	-2046
lock	-2047
oint	-2048
▁Bar	-2049
▁Guy	-2050
icken	-2051
▁Only	-2052
▁club	-2053
▁drum	-2054
▁late	-2055
▁color	-2056
▁knows	-2057
▁minutes	-2058
▁working	-2059
2.	-2060
eah	-2061
hen	-2062
ror	-2063
ube	-2064
▁En	-2065
▁Gu	-2066
anic	-2067
ator	-2068
bers	-2069
erry	-2070
side	-2071
onest	-2072
▁Song	-2073
▁lost	-2074
▁mist	-2075
▁David	-2076
▁These	-2077
▁books	-2078
▁water	-2079
▁worst	-2080
▁Family	-2081
▁forgot	-2082
▁unless	-2083
▁Jessica	-2084
▁birthday	-2085
▁continue	-2086
0.	-2087
ped	-2088
▁Ty	-2089
aces	-2090
ears	-2091
▁cry	-2092
▁ele	-2093
orrow	-2094
▁Show	-2095
▁York	-2096
▁body	-2097
▁lead	-2098
▁took	-2099
▁later	-2100
ropriate	-2101
▁success	-2102
▁attention	-2103
boy	-2104
▁Kn	-2105
▁ef	-2106
ctor	-2107
▁Jes	-2108
▁Rem	-2109
▁equ	-2110
▁requ	-2111
▁sung	-2112
▁allow	-2113
▁along	-2114
▁party	-2115
▁Cruise	-2116
▁contact	-2117
▁started	-2118
▁Da	-2119
iest	-2120
▁Ace	-2121
▁dri	-2122
▁repe	-2123
▁repl	-2124
▁White	-2125
▁death	-2126
▁illeg	-2127
▁share	-2128
▁track	-2129
▁worry	-2130
▁Disney	-2131
▁single	-2132
▁cartoon	-2133
▁exactly	-2134
▁serious	-2135
▁whether	-2136
attractive	-2137
1.	-2138
cri	-2139
sed	-2140
▁Up	-2141
back	-2142
nday	-2143
work	-2144
▁Nic	-2145
▁Que	-2146
▁Red	-2147
▁Sat	-2148
▁sat	-2149
ledge	-2150
ouble	-2151
wards	-2152
▁shop	-2153
▁became	-2154
▁commer	-2155
▁America	-2156
▁provide	-2157
▁station	-2158
▁personal	-2159
ba	-2160
cl	-2161
yn	-2162
oul	-2163
▁2.	-2164
ided	-2165
lves	-2166
teen	-2167
▁fig	-2168
anger	-2169
ional	-2170
▁Both	-2171
▁gone	-2172
▁lady	-2173
▁poor	-2174
▁acting	-2175
▁unattractive	-2176
▁bu	-2177
ayer	-2178
ined	-2179
▁197	-2180
▁Van	-2181
▁prof	-2182
▁suck	-2183
▁Since	-2184
▁invol	-2185
▁meant	-2186
▁short	-2187
▁killed	-2188
▁locate	-2189
▁magazine	-2190
▁important	-2191
▁Unfortunately	-2192
▁z	-2193
ery	-2194
que	-2195
ral	-2196
uce	-2197
▁La	-2198
enny	-2199
ield	-2200
▁Jam	-2201
▁Wom	-2202
▁bed	-2203
▁odd	-2204
itten	-2205
▁bott	-2206
▁fell	-2207
▁hell	-2208
▁iPod	-2209
▁kick	-2210
▁sent	-2211
▁bring	-2212
▁eight	-2213
▁enter	-2214
▁games	-2215
▁whole	-2216
▁dancing	-2217
▁happens	-2218
▁activity	-2219
ask	-2220
xim	-2221
▁ed	-2222
ager	-2223
anna	-2224
ient	-2225
▁Men	-2226
▁Two	-2227
fully	-2228
▁Back	-2229
▁Miss	-2230
▁teen	-2231
ealing	-2232
idered	-2233
▁Somet	-2234
▁scary	-2235
▁Norris	-2236
▁decent	-2237
▁months	-2238
▁select	-2239
▁section	-2240
▁whatever	-2241
▁considered	-2242
net	-2243
▁DJ	-2244
come	-2245
hind	-2246
ifer	-2247
vert	-2248
▁Bro	-2249
▁aud	-2250
▁pri	-2251
▁ref	-2252
▁sum	-2253
oices	-2254
veral	-2255
▁List	-2256
▁West	-2257
▁boys	-2258
▁main	-2259
▁prom	-2260
▁stud	-2261
▁disag	-2262
▁scene	-2263
ference	-2264
▁assist	-2265
▁figure	-2266
▁Beatles	-2267
▁Brother	-2268
▁excited	-2269
▁several	-2270
▁supposed	-2271
▁fantastic	-2272
ape	-2273
gan	-2274
thy	-2275
ards	-2276
raid	-2277
ware	-2278
▁Bey	-2279
▁Wal	-2280
▁ang	-2281
▁bas	-2282
▁cow	-2283
▁dad	-2284
▁opp	-2285
▁pol	-2286
▁tot	-2287
iving	-2288
track	-2289
▁Brad	-2290
▁Ebay	-2291
▁Take	-2292
▁aren	-2293
▁dumb	-2294
▁wind	-2295
selves	-2296
▁Jones	-2297
▁taste	-2298
▁third	-2299
▁illegal	-2300
▁perfect	-2301
▁surprised	-2302
"?	-2303
3.	-2304
go	-2305
erm	-2306
ino	-2307
mas	-2308
▁Qu	-2309
▁Sn	-2310
illy	-2311
pril	-2312
▁Use	-2313
▁dem	-2314
▁mod	-2315
▁Doll	-2316
▁Many	-2317
▁fore	-2318
▁imag	-2319
▁news	-2320
▁cares	-2321
▁drugs	-2322
▁afraid	-2323
▁contain	-2324
▁explain	-2325
▁knowledge	-2326
▁completely	-2327
ex	-2328
ru	-2329
bie	-2330
era	-2331
hant	-2332
iday	-2333
ouch	-2334
▁Pre	-2335
▁Rob	-2336
▁fif	-2337
▁fly	-2338
▁iss	-2339
▁web	-2340
aving	-2341
ision	-2342
▁Make	-2343
▁clot	-2344
▁food	-2345
▁paid	-2346
▁room	-2347
edding	-2348
onight	-2349
▁Holly	-2350
▁Those	-2351
▁alone	-2352
▁deser	-2353
▁loves	-2354
▁names	-2355
▁action	-2356
▁bought	-2357
▁result	-2358
▁example	-2359
▁meaning	-2360
▁reading	-2361
▁respond	-2362
▁annoying	-2363
▁laughing	-2364
▁characters	-2365
yl	-2366
ged	-2367
▁Bo	-2368
▁Pat	-2369
▁gas	-2370
rison	-2371
▁porn	-2372
▁Queen	-2373
▁Visit	-2374
▁Young	-2375
▁helps	-2376
▁pregn	-2377
lection	-2378
▁depend	-2379
▁missed	-2380
▁Britney	-2381
▁greatly	-2382
▁Angelina	-2383
▁answered	-2384
▁disagree	-2385
5.	-2386
eb	-2387
Bay	-2388
ere	-2389
iol	-2390
isa	-2391
oun	-2392
oyd	-2393
▁Ed	-2394
▁sn	-2395
bert	-2396
cent	-2397
mail	-2398
olie	-2399
rely	-2400
room	-2401
▁Bad	-2402
▁Cal	-2403
▁rom	-2404
▁Mary	-2405
▁bass	-2406
▁disg	-2407
▁gave	-2408
▁loud	-2409
illion	-2410
▁April	-2411
▁Their	-2412
▁dress	-2413
▁heavy	-2414
▁hours	-2415
▁sites	-2416
▁smell	-2417
▁actors	-2418
▁highly	-2419
▁concert	-2420
▁message	-2421
▁present	-2422
▁greatest	-2423
▁handsome	-2424
▁possibly	-2425
▁following	-2426
▁absolutely	-2427
▁performance	-2428
ius	-2429
men	-2430
nie	-2431
ills	-2432
oses	-2433
what	-2434
▁cat	-2435
▁pub	-2436
▁Jenn	-2437
▁Roll	-2438
▁desp	-2439
▁Charl	-2440
▁alive	-2441
▁belie	-2442
▁pants	-2443
▁pleas	-2444
▁smart	-2445
▁stars	-2446
▁voted	-2447
quently	-2448
▁albums	-2449
▁behind	-2450
▁incred	-2451
▁parent	-2452
▁waiting	-2453
▁themselves	-2454
els	-2455
enc	-2456
jor	-2457
mal	-2458
▁Us	-2459
▁sy	-2460
▁ut	-2461
▁Act	-2462
▁Kat	-2463
▁Lee	-2464
▁Mag	-2465
▁Rom	-2466
▁Vin	-2467
▁box	-2468
▁dep	-2469
▁tic	-2470
▁vir	-2471
ights	-2472
uture	-2473
▁Give	-2474
▁Mike	-2475
▁fans	-2476
▁feat	-2477
▁phot	-2478
▁Clark	-2479
▁Could	-2480
▁Jolie	-2481
▁Smith	-2482
▁World	-2483
▁light	-2484
ination	-2485
▁rapper	-2486
▁stated	-2487
▁celebrity	-2488
▁gentleman	-2489
▁personally	-2490
▁intelligent	-2491
My	-2492
zz	-2493
Don	-2494
chn	-2495
imp	-2496
irc	-2497
▁ru	-2498
once	-2499
▁Hot	-2500
▁Jay	-2501
▁cre	-2502
▁tri	-2503
Tunes	-2504
▁Band	-2505
▁Tell	-2506
▁ball	-2507
▁burn	-2508
▁rent	-2509
▁wood	-2510
iction	-2511
▁South	-2512
▁Under	-2513
▁clean	-2514
▁lives	-2515
▁couldn	-2516
▁twenty	-2517
▁written	-2518
▁horrible	-2519
▁pregnant	-2520
▁purchased	-2521
!!	-2522
9.	-2523
BC	-2524
the	-2525
unt	-2526
▁Fe	-2527
▁Ma	-2528
▁Os	-2529
▁bo	-2530
Good	-2531
ches	-2532
ital	-2533
▁Its	-2534
▁par	-2535
▁por	-2536
▁tab	-2537
▁ups	-2538
▁war	-2539
erial	-2540
ories	-2541
▁Dave	-2542
▁Nick	-2543
▁Wars	-2544
▁fake	-2545
▁soft	-2546
▁spec	-2547
▁tour	-2548
perior	-2549
▁Heart	-2550
▁Never	-2551
▁above	-2552
▁angry	-2553
▁occur	-2554
▁pract	-2555
▁United	-2556
▁anyway	-2557
▁manner	-2558
▁remain	-2559
ximately	-2560
▁Jennifer	-2561
▁selection	-2562
▁soundtrack	-2563
▁individuals	-2564
6.	-2565
che	-2566
▁Ab	-2567
▁Je	-2568
asha	-2569
time	-2570
▁100	-2571
▁Dad	-2572
▁Veg	-2573
▁tom	-2574
antly	-2575
inger	-2576
▁Care	-2577
▁Depp	-2578
▁From	-2579
▁Yeah	-2580
▁dist	-2581
▁fast	-2582
▁grow	-2583
▁phys	-2584
▁role	-2585
▁upon	-2586
orrent	-2587
weight	-2588
▁Billy	-2589
▁sweet	-2590
▁wrote	-2591
▁Listen	-2592
▁disapp	-2593
▁weight	-2594
▁require	-2595
itionally	-2596
▁Superman	-2597
▁superior	-2598
▁appearance	-2599
▁celebrities	-2600
iah	-2601
iet	-2602
raw	-2603
rey	-2604
yan	-2605
What	-2606
azon	-2607
hare	-2608
iver	-2609
upac	-2610
▁Net	-2611
▁War	-2612
▁var	-2613
▁stri	-2614
▁Dream	-2615
▁Frank	-2616
▁colle	-2617
▁theme	-2618
▁fairly	-2619
▁listed	-2620
▁sexual	-2621
▁Simpson	-2622
▁chicken	-2623
▁created	-2624
▁options	-2625
▁material	-2626
▁Christmas	-2627
▁correctly	-2628
▁somewhere	-2629
▁overweight	-2630
▁Additionally	-2631
',	-2632
ho	-2633
ka	-2634
sy	-2635
urb	-2636
▁Op	-2637
▁la	-2638
angu	-2639
ille	-2640
ique	-2641
ists	-2642
▁rhy	-2643
ester	-2644
▁Come	-2645
▁Duff	-2646
▁Link	-2647
▁Lord	-2648
▁cell	-2649
▁dark	-2650
▁page	-2651
allica	-2652
▁Vegas	-2653
▁adult	-2654
▁cause	-2655
▁clear	-2656
▁cross	-2657
▁truly	-2658
▁unint	-2659
ountain	-2660
▁addict	-2661
▁breast	-2662
▁honest	-2663
▁iTunes	-2664
▁Beyonce	-2665
▁alright	-2666
▁disgust	-2667
▁singers	-2668
▁wearing	-2669
▁speaking	-2670
▁spelling	-2671
▁featuring	-2672
▁difference	-2673
SI	-2674
gu	-2675
yc	-2676
abb	-2677
aur	-2678
bor	-2679
epp	-2680
▁ir	-2681
appy	-2682
host	-2683
iles	-2684
ming	-2685
▁Ash	-2686
▁Bat	-2687
▁Buy	-2688
▁Ric	-2689
▁emo	-2690
▁har	-2691
▁kid	-2692
▁low	-2693
iding	-2694
▁Adam	-2695
▁Aust	-2696
▁Kong	-2697
▁Rose	-2698
▁cred	-2699
▁feet	-2700
▁fire	-2701
▁huge	-2702
▁sort	-2703
▁tall	-2704
▁tend	-2705
idding	-2706
itting	-2707
▁Carey	-2708
▁Elvis	-2709
▁Tupac	-2710
▁anime	-2711
▁langu	-2712
▁local	-2713
▁major	-2714
▁state	-2715
▁twice	-2716
▁weird	-2717
▁Daniel	-2718
▁Friend	-2719
▁ending	-2720
▁future	-2721
▁inside	-2722
▁feeling	-2723
▁parents	-2724
▁special	-2725
▁including	-2726
▁acceptable	-2727
▁approximately	-2728
St	-2729
za	-2730
ior	-2731
rie	-2732
▁20	-2733
arth	-2734
onse	-2735
quir	-2736
▁cut	-2737
itled	-2738
▁City	-2739
▁Hall	-2740
▁cent	-2741
▁emot	-2742
▁jump	-2743
▁stat	-2744
▁Night	-2745
▁power	-2746
▁Spears	-2747
▁cheese	-2748
▁create	-2749
▁dating	-2750
▁except	-2751
▁living	-2752
▁remove	-2753
▁attract	-2754
▁obvious	-2755
▁product	-2756
ternative	-2757
▁decision	-2758
▁previously	-2759
▁successful	-2760
▁unintelligent	-2761
000	-2762
aza	-2763
hop	-2764
mes	-2765
ogn	-2766
rum	-2767
avig	-2768
play	-2769
▁Jon	-2770
▁Led	-2771
▁Nir	-2772
▁fit	-2773
▁mix	-2774
▁smo	-2775
▁voc	-2776
iforn	-2777
▁Blue	-2778
▁Mart	-2779
▁Pitt	-2780
▁Time	-2781
▁beha	-2782
▁blue	-2783
▁busy	-2784
▁eBay	-2785
▁form	-2786
▁oper	-2787
▁road	-2788
▁roll	-2789
▁sick	-2790
▁given	-2791
▁level	-2792
▁silly	-2793
▁taken	-2794
▁truth	-2795
▁waste	-2796
▁obsess	-2797
▁discuss	-2798
ww	-2799
eps	-2800
ett	-2801
ken	-2802
oes	-2803
▁Af	-2804
aith	-2805
kets	-2806
unny	-2807
▁Cra	-2808
▁Got	-2809
▁Hal	-2810
▁Min	-2811
▁fel	-2812
▁clos	-2813
▁file	-2814
▁shar	-2815
▁step	-2816
▁walk	-2817
orning	-2818
▁Great	-2819
▁idiot	-2820
▁quick	-2821
▁seven	-2822
▁upset	-2823
ifornia	-2824
▁fright	-2825
▁scream	-2826
▁simple	-2827
▁kidding	-2828
▁reality	-2829
▁running	-2830
apt	-2831
iod	-2832
log	-2833
oof	-2834
org	-2835
▁Sw	-2836
ocol	-2837
ucky	-2838
wise	-2839
▁Ben	-2840
▁Bon	-2841
▁Lou	-2842
▁Mel	-2843
▁Mom	-2844
▁val	-2845
▁Fred	-2846
▁High	-2847
▁Ryan	-2848
▁Wind	-2849
▁butt	-2850
▁cast	-2851
▁cous	-2852
▁mail	-2853
▁nose	-2854
▁util	-2855
▁viol	-2856
coming	-2857
▁Floyd	-2858
▁Kevin	-2859
▁disco	-2860
▁gener	-2861
▁human	-2862
▁Mariah	-2863
▁bottom	-2864
▁comedy	-2865
▁Myspace	-2866
▁account	-2867
▁compact	-2868
▁tonight	-2869
▁younger	-2870
▁involved	-2871
▁response	-2872
▁exception	-2873
▁incorrect	-2874
▁mentioned	-2875
▁California	-2876
▁appropriate	-2877
▁entertaining	-2878
4.	-2879
li	-2880
ani	-2881
asc	-2882
tic	-2883
▁13	-2884
iant	-2885
tray	-2886
uses	-2887
▁Des	-2888
▁Ice	-2889
▁Jap	-2890
▁Sec	-2891
▁ign	-2892
▁wee	-2893
ances	-2894
anish	-2895
iness	-2896
▁Bush	-2897
▁Home	-2898
▁legs	-2899
▁mult	-2900
▁prop	-2901
▁Peter	-2902
▁Watch	-2903
▁admit	-2904
▁bored	-2905
▁green	-2906
▁lucky	-2907
▁marry	-2908
▁Indian	-2909
▁Linkin	-2910
▁Though	-2911
▁viewed	-2912
▁contest	-2913
▁helpful	-2914
▁portray	-2915
▁tomorrow	-2916
▁appealing	-2917
▁concerned	-2918
▁frequently	-2919
),	-2920
fl	-2921
la	-2922
oe	-2923
ira	-2924
uke	-2925
▁Sy	-2926
iety	-2927
rase	-2928
vana	-2929
▁Nar	-2930
▁Saw	-2931
▁arr	-2932
▁cap	-2933
▁sol	-2934
aware	-2935
illed	-2936
▁Call	-2937
▁Club	-2938
▁Kate	-2939
▁cook	-2940
▁nine	-2941
▁rain	-2942
▁self	-2943
▁size	-2944
▁task	-2945
▁ways	-2946
▁Click	-2947
▁Count	-2948
▁Jesus	-2949
▁began	-2950
▁broke	-2951
▁ident	-2952
▁mouth	-2953
▁stuck	-2954
▁trans	-2955
ography	-2956
▁direct	-2957
▁expect	-2958
▁screen	-2959
▁string	-2960
▁thinks	-2961
▁Nothing	-2962
▁ability	-2963
▁comment	-2964
▁finally	-2965
▁learned	-2966
▁Remember	-2967
▁somewhat	-2968
▁Hollywood	-2969
▁musicians	-2970
▁wondering	-2971
5,	-2972
ena	-2973
ien	-2974
iff	-2975
isf	-2976
ots	-2977
pod	-2978
rit	-2979
▁12	-2980
▁Ev	-2981
▁da	-2982
ache	-2983
ateg	-2984
atic	-2985
iece	-2986
stem	-2987
▁App	-2988
▁Ask	-2989
▁Hey	-2990
▁Jan	-2991
▁Ray	-2992
▁Tex	-2993
▁del	-2994
▁lab	-2995
▁los	-2996
▁mad	-2997
▁rum	-2998
mical	-2999
ulous	-3000
umber	-3001
▁Chan	-3002
▁Hope	-3003
▁glad	-3004
▁lots	-3005
▁none	-3006
▁sour	-3007
▁tape	-3008
▁town	-3009
▁Japan	-3010
▁Woman	-3011
▁advis	-3012
▁beach	-3013
▁drive	-3014
▁grand	-3015
▁offer	-3016
▁takes	-3017
▁techn	-3018
▁touch	-3019
ocolate	-3020
▁Batman	-3021
▁Nicole	-3022
▁assume	-3023
▁merely	-3024
▁period	-3025
▁recogn	-3026
▁Nirvana	-3027
▁company	-3028
▁hearing	-3029
▁related	-3030
▁spelled	-3031
▁unaware	-3032
▁entitled	-3033
▁Christian	-3034
▁Metallica	-3035
▁Sometimes	-3036
▁uncertain	-3037
▁commercial	-3038
▁disappoint	-3039
**	-3040
lu	-3041
asy	-3042
ker	-3043
mar	-3044
thm	-3045
▁11	-3046
ying	-3047
▁Lol	-3048
▁ban	-3049
▁eye	-3050
▁law	-3051
asion	-3052
▁Once	-3053
▁Phil	-3054
▁hang	-3055
▁hero	-3056
▁hurt	-3057
▁rich	-3058
▁ring	-3059
▁slow	-3060
▁team	-3061
▁term	-3062
ctions	-3063
▁drunk	-3064
▁knock	-3065
▁model	-3066
▁obese	-3067
▁Amazon	-3068
▁bother	-3069
▁caught	-3070
▁effect	-3071
▁resemb	-3072
▁taking	-3073
▁Madonna	-3074
▁Mountain	-3075
▁features	-3076
▁expensive	-3077
19	-3078
Sp	-3079
eng	-3080
ets	-3081
ffy	-3082
uto	-3083
▁3.	-3084
hood	-3085
sych	-3086
▁Col	-3087
▁Fox	-3088
▁Ger	-3089
▁Mur	-3090
▁jud	-3091
ville	-3092
▁Fire	-3093
▁Last	-3094
▁None	-3095
▁Peas	-3096
▁lack	-3097
▁lose	-3098
▁tatt	-3099
▁wins	-3100
▁Afric	-3101
▁Bruce	-3102
▁Keith	-3103
▁March	-3104
▁Roses	-3105
▁accom	-3106
▁adore	-3107
▁based	-3108
▁blood	-3109
▁catch	-3110
▁chose	-3111
▁extra	-3112
▁files	-3113
▁gives	-3114
▁ready	-3115
▁space	-3116
▁Billie	-3117
▁Elliot	-3118
▁Street	-3119
▁Sunday	-3120
▁advert	-3121
▁descri	-3122
▁intend	-3123
▁joking	-3124
▁monkey	-3125
▁places	-3126
limewire	-3127
▁choices	-3128
▁imagine	-3129
▁trouble	-3130
▁Probably	-3131
▁confused	-3132
▁frighten	-3133
▁software	-3134
▁disgusting	-3135
7,	-3136
It	-3137
ae	-3138
cu	-3139
py	-3140
▁,	-3141
bar	-3142
but	-3143
eed	-3144
iny	-3145
irm	-3146
nes	-3147
str	-3148
▁II	-3149
▁Im	-3150
azaa	-3151
elve	-3152
ping	-3153
▁Edd	-3154
▁Kim	-3155
▁Luc	-3156
▁See	-3157
▁egg	-3158
▁mis	-3159
▁neg	-3160
▁pat	-3161
antic	-3162
board	-3163
ified	-3164
imate	-3165
▁Answ	-3166
▁Find	-3167
▁Four	-3168
▁Kell	-3169
▁Lost	-3170
▁Mine	-3171
▁Okay	-3172
▁Pick	-3173
▁Zepp	-3174
▁bath	-3175
▁fish	-3176
▁host	-3177
overed	-3178
▁1980'	-3179
▁Mexic	-3180
▁Texas	-3181
▁brain	-3182
▁comed	-3183
▁const	-3184
▁front	-3185
▁impro	-3186
▁legal	-3187
▁match	-3188
▁trust	-3189
▁types	-3190
▁yours	-3191
▁States	-3192
▁advice	-3193
▁cousin	-3194
▁decide	-3195
▁eating	-3196
▁middle	-3197
▁necess	-3198
▁needed	-3199
▁Romance	-3200
▁against	-3201
▁driving	-3202
▁express	-3203
▁foolish	-3204
▁morning	-3205
▁outside	-3206
▁realize	-3207
▁respect	-3208
▁totally	-3209
▁Chemical	-3210
▁Clarkson	-3211
▁entirely	-3212
▁listened	-3213
▁problems	-3214
▁research	-3215
12	-3216
Oh	-3217
olf	-3218
oos	-3219
▁Ag	-3220
▁IM	-3221
▁VH	-3222
▁cd	-3223
cast	-3224
ceed	-3225
gard	-3226
inet	-3227
iter	-3228
rian	-3229
rick	-3230
rodu	-3231
vant	-3232
▁Haw	-3233
▁Kid	-3234
▁Vir	-3235
▁din	-3236
▁enc	-3237
▁mid	-3238
▁rid	-3239
ounds	-3240
▁Dead	-3241
▁Full	-3242
▁Play	-3243
▁felt	-3244
▁gang	-3245
▁jail	-3246
▁park	-3247
raight	-3248
▁Child	-3249
▁Metal	-3250
▁Scary	-3251
▁build	-3252
▁offic	-3253
▁throw	-3254
▁treat	-3255
▁compet	-3256
▁easier	-3257
▁recent	-3258
▁summer	-3259
▁Spanish	-3260
▁content	-3261
▁forward	-3262
▁reminds	-3263
▁service	-3264
▁subject	-3265
▁Download	-3266
▁beginning	-3267
Be	-3268
In	-3269
OL	-3270
db	-3271
!".	-3272
ann	-3273
hol	-3274
rah	-3275
rek	-3276
wen	-3277
▁30	-3278
▁Co	-3279
▁Ha	-3280
▁oh	-3281
▁ur	-3282
▁ve	-3283
ffic	-3284
hile	-3285
ries	-3286
▁196	-3287
▁Bel	-3288
▁CSI	-3289
▁Har	-3290
▁Mor	-3291
▁key	-3292
▁lay	-3293
▁ver	-3294
▁Pres	-3295
▁Wait	-3296
▁dest	-3297
▁pred	-3298
▁skin	-3299
▁uses	-3300
▁Happy	-3301
▁Which	-3302
▁awful	-3303
▁cance	-3304
▁categ	-3305
▁drama	-3306
▁early	-3307
▁elect	-3308
▁media	-3309
▁press	-3310
▁access	-3311
▁advise	-3312
▁button	-3313
▁passed	-3314
▁public	-3315
▁travel	-3316
▁turned	-3317
▁window	-3318
▁worked	-3319
▁Someone	-3320
▁accident	-3321
▁includes	-3322
▁recorded	-3323
▁downloads	-3324
▁downloading	-3325
▁personality	-3326
.,	-3327
1,	-3328
7.	-3329
Yo	-3330
ges	-3331
let	-3332
lex	-3333
mon	-3334
oid	-3335
▁MP	-3336
▁Sk	-3337
▁er	-3338
aked	-3339
ette	-3340
iced	-3341
ison	-3342
oons	-3343
pper	-3344
rage	-3345
▁CDs	-3346
▁Jul	-3347
▁Mac	-3348
▁McC	-3349
▁Sky	-3350
▁Too	-3351
▁wit	-3352
rench	-3353
▁Eyed	-3354
▁Guns	-3355
▁Kill	-3356
▁Moon	-3357
▁Rich	-3358
▁Shak	-3359
▁Stew	-3360
▁Type	-3361
▁Wall	-3362
▁circ	-3363
▁mood	-3364
▁onto	-3365
▁plot	-3366
▁rude	-3367
▁sequ	-3368
ealous	-3369
istory	-3370
▁Dolls	-3371
▁Nelly	-3372
▁Steve	-3373
▁Three	-3374
▁ahead	-3375
▁cover	-3376
▁horse	-3377
▁stick	-3378
▁tired	-3379
▁worse	-3380
▁Either	-3381
▁dreams	-3382
▁genres	-3383
▁images	-3384
▁member	-3385
▁review	-3386
atherine	-3387
▁instrum	-3388
▁members	-3389
▁request	-3390
fortunate	-3391
▁Brothers	-3392
▁anywhere	-3393
▁practice	-3394
▁previous	-3395
▁romantic	-3396
▁regardless	-3397
2,	-3398
af	-3399
▁́	-3400
How	-3401
box	-3402
ibs	-3403
rel	-3404
www	-3405
▁80	-3406
▁Ly	-3407
▁Ol	-3408
▁Oz	-3409
▁ge	-3410
anta	-3411
down	-3412
icle	-3413
loor	-3414
mart	-3415
▁Dam	-3416
▁Las	-3417
▁Old	-3418
▁Pur	-3419
▁Sil	-3420
▁Sum	-3421
▁Tit	-3422
▁gar	-3423
▁imm	-3424
▁ran	-3425
▁sun	-3426
ndred	-3427
▁Dark	-3428
▁Gang	-3429
▁bene	-3430
▁card	-3431
ashion	-3432
▁Break	-3433
▁Sweet	-3434
▁paper	-3435
▁price	-3436
▁quiet	-3437
▁shoot	-3438
▁teeth	-3439
ptember	-3440
▁Hilary	-3441
▁arrive	-3442
▁career	-3443
▁nature	-3444
▁phrase	-3445
▁William	-3446
▁details	-3447
▁profess	-3448
▁release	-3449
▁replied	-3450
▁wedding	-3451
▁writing	-3452
▁Actually	-3453
▁believed	-3454
▁included	-3455
▁language	-3456
▁musician	-3457
▁obsessed	-3458
▁therefore	-3459
▁alternative	-3460
▁unfortunate	-3461
ij	-3462
Hey	-3463
erg	-3464
ert	-3465
ini	-3466
rol	-3467
▁1.	-3468
▁4.	-3469
▁5.	-3470
▁WW	-3471
▁mp	-3472
aced	-3473
gest	-3474
iano	-3475
imin	-3476
mble	-3477
omer	-3478
oust	-3479
stro	-3480
umps	-3481
▁Hol	-3482
▁Los	-3483
▁Pop	-3484
▁dam	-3485
▁fur	-3486
▁hig	-3487
▁lat	-3488
eared	-3489
phant	-3490
under	-3491
▁Coll	-3492
▁East	-3493
▁Head	-3494
▁Live	-3495
▁Mand	-3496
▁Next	-3497
▁clue	-3498
▁comb	-3499
▁earl	-3500
▁ends	-3501
▁hide	-3502
▁join	-3503
▁moon	-3504
▁plus	-3505
▁quit	-3506
▁tune	-3507
▁wall	-3508
uyasha	-3509
▁Brian	-3510
▁Jason	-3511
▁Jerry	-3512
▁Kazaa	-3513
▁Oprah	-3514
▁Radio	-3515
▁Scorp	-3516
▁Usher	-3517
▁accur	-3518
▁cents	-3519
▁earth	-3520
▁ideas	-3521
▁issue	-3522
▁neigh	-3523
▁obser	-3524
▁quote	-3525
▁whose	-3526
▁Friday	-3527
▁Heaven	-3528
▁inquir	-3529
▁nearly	-3530
▁normal	-3531
▁regret	-3532
▁yellow	-3533
▁Hillary	-3534
▁jealous	-3535
▁stopped	-3536
▁telling	-3537
▁Internet	-3538
▁required	-3539
▁signific	-3540
▁September	-3541
▁answering	-3542
▁obviously	-3543
▁otherwise	-3544
▁downloaded	-3545
▁performing	-3546
▁considering	-3547
▁entertainment	-3548
jo	-3549
gar	-3550
ios	-3551
osh	-3552
ule	-3553
upp	-3554
ford	-3555
iger	-3556
itty	-3557
pend	-3558
ples	-3559
uary	-3560
▁Aqu	-3561
▁Nat	-3562
▁Rec	-3563
▁Str	-3564
▁Zac	-3565
▁mur	-3566
enced	-3567
phone	-3568
ragon	-3569
unity	-3570
urday	-3571
▁Chic	-3572
▁Gree	-3573
▁Lisa	-3574
▁More	-3575
▁Sean	-3576
▁Turn	-3577
▁Walk	-3578
▁cree	-3579
▁funn	-3580
▁test	-3581
▁tree	-3582
ground	-3583
▁Daddy	-3584
▁Eddie	-3585
▁Other	-3586
▁Panic	-3587
▁Simon	-3588
▁dirty	-3589
▁lyric	-3590
▁relax	-3591
▁shall	-3592
▁toile	-3593
▁vocal	-3594
ational	-3595
▁Person	-3596
▁Robert	-3597
▁Thanks	-3598
▁Unless	-3599
▁actual	-3600
▁doctor	-3601
▁enjoys	-3602
▁horror	-3603
▁letter	-3604
▁picked	-3605
▁riddle	-3606
▁street	-3607
earshare	-3608
▁acquire	-3609
▁decided	-3610
▁despite	-3611
▁forever	-3612
▁herself	-3613
▁quickly	-3614
▁rappers	-3615
▁Japanese	-3616
▁Simpsons	-3617
▁advertis	-3618
▁business	-3619
▁mistaken	-3620
▁produced	-3621
▁programs	-3622
▁stations	-3623
▁straight	-3624
▁impression	-3625
.)	-3626
8.	-3627
uk	-3628
ago	-3629
aug	-3630
azy	-3631
ero	-3632
ige	-3633
kel	-3634
par	-3635
rix	-3636
wor	-3637
▁24	-3638
▁Av	-3639
▁Hi	-3640
▁PS	-3641
▁US	-3642
▁bi	-3643
▁hy	-3644
▁ju	-3645
anks	-3646
elin	-3647
ivor	-3648
ugar	-3649
▁Nap	-3650
▁Off	-3651
▁bow	-3652
▁cal	-3653
Space	-3654
acher	-3655
althy	-3656
isted	-3657
owers	-3658
ution	-3659
▁Gold	-3660
▁Iron	-3661
▁beer	-3662
▁corn	-3663
▁deep	-3664
▁fail	-3665
▁hits	-3666
▁pack	-3667
▁pull	-3668
▁sear	-3669
▁whom	-3670
Americ	-3671
▁Blink	-3672
▁Lohan	-3673
▁Right	-3674
▁engag	-3675
▁ought	-3676
▁psych	-3677
▁reach	-3678
▁theat	-3679
▁Martin	-3680
▁School	-3681
▁Simply	-3682
▁common	-3683
▁giving	-3684
▁insane	-3685
▁mature	-3686
▁police	-3687
▁rhythm	-3688
▁toilet	-3689
▁unlike	-3690
esterday	-3691
▁African	-3692
▁Austral	-3693
▁Without	-3694
▁breasts	-3695
▁clothes	-3696
▁curious	-3697
▁history	-3698
▁viewing	-3699
▁walking	-3700
▁featured	-3701
▁finished	-3702
▁negative	-3703
▁occasion	-3704
▁position	-3705
▁sexually	-3706
▁Katherine	-3707
▁recognize	-3708
▁unfortunately	-3709
"!	-3710
50	-3711
No	-3712
▁#	-3713
azz	-3714
bye	-3715
ipk	-3716
ism	-3717
lim	-3718
oly	-3719
ubs	-3720
urf	-3721
uts	-3722
▁2,	-3723
▁Ci	-3724
ands	-3725
hard	-3726
izza	-3727
mber	-3728
read	-3729
▁Att	-3730
▁Cur	-3731
▁Dem	-3732
▁Dog	-3733
▁Fat	-3734
▁Hip	-3735
▁Inc	-3736
▁Jud	-3737
▁Rap	-3738
▁Ser	-3739
▁Tim	-3740
▁Top	-3741
▁ice	-3742
▁lie	-3743
▁pot	-3744
▁sal	-3745
▁sky	-3746
▁wis	-3747
arily	-3748
ppers	-3749
▁Game	-3750
▁Maid	-3751
▁Mark	-3752
▁Punk	-3753
▁Puss	-3754
▁Rick	-3755
▁acqu	-3756
▁chat	-3757
▁drop	-3758
▁flat	-3759
▁pers	-3760
▁rate	-3761
▁save	-3762
▁vict	-3763
esides	-3764
father	-3765
indsay	-3766
ingers	-3767
ipknot	-3768
oughly	-3769
▁Ciara	-3770
▁Dirty	-3771
▁Grace	-3772
▁Rings	-3773
▁Snoop	-3774
▁blind	-3775
▁broad	-3776
▁image	-3777
▁influ	-3778
▁irrit	-3779
▁label	-3780
▁Prince	-3781
▁belong	-3782
▁bigger	-3783
▁credit	-3784
▁finger	-3785
▁larger	-3786
▁multip	-3787
▁rating	-3788
▁remind	-3789
▁repeat	-3790
▁satisf	-3791
▁source	-3792
▁twelve	-3793
▁unique	-3794
▁Chicago	-3795
▁MySpace	-3796
▁Patrick	-3797
▁Walmart	-3798
▁earlier	-3799
▁inquire	-3800
▁intoxic	-3801
▁noticed	-3802
▁numbers	-3803
▁results	-3804
▁smoking	-3805
▁Inuyasha	-3806
▁Saturday	-3807
▁informed	-3808
▁particip	-3809
▁attracted	-3810
▁chocolate	-3811
▁reference	-3812
▁physically	-3813
.'	-3814
DB	-3815
ga	-3816
vd	-3817
All	-3818
amb	-3819
ano	-3820
dom	-3821
erc	-3822
ift	-3823
omb	-3824
▁Po	-3825
▁je	-3826
▁na	-3827
▁ra	-3828
▁tv	-3829
....	-3830
alth	-3831
aves	-3832
cing	-3833
erly	-3834
medi	-3835
ners	-3836
opez	-3837
ords	-3838
orus	-3839
▁Bub	-3840
▁Cow	-3841
▁Exc	-3842
▁Run	-3843
▁Sun	-3844
▁Yan	-3845
▁bur	-3846
▁cam	-3847
▁gun	-3848
▁rac	-3849
cohol	-3850
field	-3851
jects	-3852
riage	-3853
▁Beck	-3854
▁Cold	-3855
▁Eric	-3856
▁Gwen	-3857
▁Jovi	-3858
▁Left	-3859
▁Shar	-3860
▁Tele	-3861
▁evil	-3862
▁inex	-3863
▁soap	-3864
▁swim	-3865
▁thin	-3866
ampire	-3867
ightly	-3868
verage	-3869
▁Katie	-3870
▁Lopez	-3871
▁Spong	-3872
▁cheat	-3873
▁conne	-3874
▁floor	-3875
▁grade	-3876
▁inapp	-3877
▁parts	-3878
▁remix	-3879
▁trick	-3880
▁wanna	-3881
▁wrest	-3882
▁Summer	-3883
▁danger	-3884
▁minute	-3885
▁report	-3886
▁walked	-3887
American	-3888
▁Another	-3889
▁Friends	-3890
▁Lindsay	-3891
▁fashion	-3892
▁hundred	-3893
▁introdu	-3894
mediately	-3895
▁drinking	-3896
▁elephant	-3897
▁starring	-3898
▁attempted	-3899
▁everybody	-3900
▁everywhere	-3901
▁preference	-3902
--	-3903
0,	-3904
RL	-3905
sm	-3906
ham	-3907
het	-3908
▁3,	-3909
▁TH	-3910
▁Yo	-3911
anch	-3912
atar	-3913
atur	-3914
earl	-3915
elle	-3916
enes	-3917
loom	-3918
oore	-3919
uffy	-3920
▁Bur	-3921
▁Law	-3922
▁Say	-3923
▁Tri	-3924
▁aut	-3925
▁pen	-3926
▁rob	-3927
▁unf	-3928
alent	-3929
arius	-3930
eding	-3931
iller	-3932
lando	-3933
olume	-3934
pleas	-3935
usual	-3936
▁Alex	-3937
▁Cash	-3938
▁Comp	-3939
▁Hard	-3940
▁Kids	-3941
▁Over	-3942
▁Part	-3943
▁Shan	-3944
▁Side	-3945
▁bird	-3946
▁bise	-3947
▁educ	-3948
▁foot	-3949
▁port	-3950
▁solo	-3951
▁soul	-3952
icated	-3953
▁Bobby	-3954
▁Death	-3955
▁cried	-3956
▁ignor	-3957
▁piano	-3958
▁shirt	-3959
▁sucks	-3960
avigate	-3961
illiant	-3962
ossible	-3963
▁Regard	-3964
▁Wonder	-3965
▁easily	-3966
▁stores	-3967
▁Orlando	-3968
▁Shakira	-3969
▁careful	-3970
▁college	-3971
▁finding	-3972
▁million	-3973
▁myspace	-3974
▁regular	-3975
▁seasons	-3976
▁tickets	-3977
▁utilize	-3978
▁witness	-3979
▁appeared	-3980
▁attended	-3981
▁becoming	-3982
▁bisexual	-3983
▁cartoons	-3984
▁clothing	-3985
▁discover	-3986
▁fighting	-3987
▁guessing	-3988
▁multiple	-3989
▁incredible	-3990
▁particularly	-3991
ER	-3992
de	-3993
ban	-3994
bus	-3995
gie	-3996
und	-3997
▁Ac	-3998
▁Gl	-3999
▁Ob	-4000
▁Ur	-4001
When	-4002
anda	-4003
cape	-4004
core	-4005
ging	-4006
illa	-4007
name	-4008
ocks	-4009
ures	-4010
▁80'	-4011
▁Arm	-4012
▁Ham	-4013
▁Hor	-4014
▁Ram	-4015
▁Sex	-4016
▁Son	-4017
▁Sur	-4018
▁ant	-4019
▁den	-4020
▁fix	-4021
▁net	-4022
cials	-4023
enger	-4024
heart	-4025
ially	-4026
ivers	-4027
ments	-4028
oween	-4029
rease	-4030
stood	-4031
venge	-4032
▁1980	-4033
▁2006	-4034
▁July	-4035
▁Keep	-4036
▁Step	-4037
▁auth	-4038
▁bald	-4039
▁bell	-4040
▁code	-4041
▁earn	-4042
▁ebay	-4043
▁enth	-4044
▁junk	-4045
▁suit	-4046
▁tabs	-4047
orable	-4048
perate	-4049
▁Beach	-4050
▁Bucky	-4051
▁Jamie	-4052
▁Jesse	-4053
▁Wayne	-4054
▁aired	-4055
▁among	-4056
▁drums	-4057
▁photo	-4058
▁plane	-4059
▁prior	-4060
▁ridic	-4061
▁round	-4062
▁shoes	-4063
▁spent	-4064
ibility	-4065
onsider	-4066
▁Ashley	-4067
▁Guitar	-4068
▁Kellie	-4069
▁Pretty	-4070
▁Spider	-4071
▁creepy	-4072
▁determ	-4073
▁dinner	-4074
▁dollar	-4075
▁mostly	-4076
▁repres	-4077
▁ticket	-4078
▁Angeles	-4079
▁Charlie	-4080
▁changed	-4081
▁collect	-4082
▁neither	-4083
▁respons	-4084
▁unusual	-4085
▁Zeppelin	-4086
▁brothers	-4087
▁category	-4088
▁enjoying	-4089
▁marriage	-4090
▁somebody	-4091
▁actresses	-4092
▁brilliant	-4093
▁yesterday	-4094
▁Everything	-4095
▁Personally	-4096
▁attempting	-4097
▁immediately	-4098
▁intoxicated	-4099
▁inappropriate	-4100
AT	-4101
iy	-4102
▁x	-4103
acy	-4104
aim	-4105
cas	-4106
col	-4107
kin	-4108
lla	-4109
orc	-4110
orm	-4111
ray	-4112
uit	-4113
war	-4114
yer	-4115
▁15	-4116
▁16	-4117
▁ev	-4118
That	-4119
ader	-4120
aine	-4121
vior	-4122
ycat	-4123
▁Ant	-4124
▁Bas	-4125
▁Gem	-4126
▁Has	-4127
▁Lib	-4128
▁Mot	-4129
▁Ord	-4130
▁Pri	-4131
▁Put	-4132
▁San	-4133
▁Sar	-4134
▁dan	-4135
▁dig	-4136
▁hur	-4137
▁les	-4138
▁mor	-4139
▁mot	-4140
▁spo	-4141
arget	-4142
ellow	-4143
ibson	-4144
itted	-4145
itude	-4146
music	-4147
ronic	-4148
▁Ball	-4149
▁Boyz	-4150
▁Days	-4151
▁IMDB	-4152
▁Long	-4153
▁Plan	-4154
▁Sand	-4155
▁Soul	-4156
▁Stef	-4157
▁Want	-4158
▁bear	-4159
▁blow	-4160
▁dele	-4161
▁dies	-4162
▁fort	-4163
▁gain	-4164
▁laug	-4165
▁libr	-4166
▁offe	-4167
▁pair	-4168
artney	-4169
icious	-4170
master	-4171
ording	-4172
▁Aries	-4173
▁Block	-4174
▁Blond	-4175
▁Favor	-4176
▁Halen	-4177
▁Jimmy	-4178
▁Kenny	-4179
▁Moore	-4180
▁Pearl	-4181
▁award	-4182
▁cable	-4183
▁carry	-4184
▁clubs	-4185
▁disli	-4186
▁gross	-4187
▁inexp	-4188
▁keeps	-4189
▁lunch	-4190
▁newer	-4191
▁newsp	-4192
▁scale	-4193
strolog	-4194
▁Carrie	-4195
▁Nobody	-4196
▁Player	-4197
▁Season	-4198
▁admire	-4199
▁allows	-4200
▁animal	-4201
▁charge	-4202
▁issues	-4203
▁nobody	-4204
▁remake	-4205
▁Answers	-4206
▁Certain	-4207
▁Country	-4208
▁Windows	-4209
▁accompl	-4210
▁alcohol	-4211
▁anybody	-4212
▁checked	-4213
▁further	-4214
▁letters	-4215
▁mistake	-4216
▁restaur	-4217
▁variety	-4218
▁willing	-4219
▁contains	-4220
▁exciting	-4221
▁planning	-4222
▁whenever	-4223
▁recording	-4224
▁regarding	-4225
▁assistance	-4226
▁discovered	-4227
▁eventually	-4228
▁instrument	-4229
▁suggestion	-4230
▁commercials	-4231
▁inexpensive	-4232
EN	-4233
ta	-4234
:00	-4235
Men	-4236
emy	-4237
kee	-4238
oby	-4239
pha	-4240
put	-4241
ros	-4242
▁$1	-4243
▁25	-4244
▁36	-4245
▁Bu	-4246
▁Ir	-4247
Love	-4248
ener	-4249
fron	-4250
stit	-4251
urch	-4252
ured	-4253
▁Dar	-4254
▁Fly	-4255
▁Gil	-4256
▁Mil	-4257
▁Osc	-4258
▁Tod	-4259
▁ate	-4260
▁bat	-4261
▁cas	-4262
▁ner	-4263
▁non	-4264
▁rer	-4265
▁sir	-4266
ences	-4267
▁Five	-4268
▁June	-4269
▁Kiss	-4270
▁Matt	-4271
▁Poss	-4272
▁Stri	-4273
▁bull	-4274
▁city	-4275
▁cold	-4276
▁dece	-4277
▁kept	-4278
▁pink	-4279
▁refr	-4280
▁wine	-4281
keback	-4282
ressed	-4283
ulture	-4284
▁Bloom	-4285
▁Defin	-4286
▁Enter	-4287
▁North	-4288
▁Power	-4289
▁assum	-4290
▁avoid	-4291
▁cheap	-4292
▁crack	-4293
▁glass	-4294
▁peace	-4295
▁rumor	-4296
▁signs	-4297
▁steal	-4298
▁topic	-4299
▁Gemini	-4300
▁Gibson	-4301
▁Indeed	-4302
▁Maiden	-4303
▁Mother	-4304
▁Naruto	-4305
▁Simple	-4306
▁Stones	-4307
▁colors	-4308
▁crying	-4309
▁events	-4310
▁lovely	-4311
▁opport	-4312
▁plenty	-4313
▁stands	-4314
▁useful	-4315
▁winner	-4316
▁Richard	-4317
▁actions	-4318
▁fifteen	-4319
▁follows	-4320
▁laughed	-4321
▁library	-4322
▁predict	-4323
▁sharing	-4324
▁support	-4325
▁theater	-4326
elligence	-4327
▁Anything	-4328
▁Williams	-4329
▁addicted	-4330
▁bathroom	-4331
▁ignorant	-4332
▁majority	-4333
▁sleeping	-4334
▁dangerous	-4335
▁guitarist	-4336
▁incredibly	-4337
▁surprising	-4338
▁disappointed	-4339
ON	-4340
kn	-4341
ze	-4342
Who	-4343
ffe	-4344
hip	-4345
hod	-4346
iac	-4347
iju	-4348
osc	-4349
osp	-4350
rap	-4351
sey	-4352
ura	-4353
urs	-4354
▁AC	-4355
▁Ok	-4356
anye	-4357
fast	-4358
kins	-4359
lear	-4360
lled	-4361
ourt	-4362
ript	-4363
tube	-4364
vate	-4365
▁10.	-4366
▁Ang	-4367
▁Cry	-4368
▁Gar	-4369
▁Lat	-4370
▁Sin	-4371
▁Six	-4372
▁Wil	-4373
▁Win	-4374
▁aff	-4375
▁est	-4376
▁ris	-4377
▁tre	-4378
▁tun	-4379
icate	-4380
ience	-4381
neath	-4382
sters	-4383
▁Chin	-4384
▁Code	-4385
▁Cole	-4386
▁Dest	-4387
▁Dick	-4388
▁Eyes	-4389
▁Fant	-4390
▁Hind	-4391
▁Lion	-4392
▁Ozzy	-4393
▁Teen	-4394
▁Tony	-4395
▁Wood	-4396
▁affe	-4397
▁boss	-4398
▁clar	-4399
▁dear	-4400
▁defe	-4401
▁fear	-4402
▁hole	-4403
▁king	-4404
▁neck	-4405
▁race	-4406
▁ruin	-4407
▁shut	-4408
actory	-4409
ijuana	-4410
oosing	-4411
street	-4412
▁Apple	-4413
▁Crazy	-4414
▁Disco	-4415
▁Efron	-4416
▁Ghost	-4417
▁Hicks	-4418
▁Spice	-4419
▁breat	-4420
▁brown	-4421
▁chest	-4422
▁cream	-4423
▁embar	-4424
▁ended	-4425
▁final	-4426
▁jeans	-4427
▁lived	-4428
▁magic	-4429
▁ninet	-4430
▁sport	-4431
▁tells	-4432
▁French	-4433
▁Number	-4434
▁Slayer	-4435
▁aspect	-4436
▁broken	-4437
▁comics	-4438
▁dancer	-4439
▁effort	-4440
▁finish	-4441
▁fourth	-4442
▁gotten	-4443
▁helped	-4444
▁latest	-4445
▁memory	-4446
▁notice	-4447
▁within	-4448
fortable	-4449
pleasant	-4450
▁Mandisa	-4451
▁Titanic	-4452
▁animals	-4453
▁despise	-4454
▁drummer	-4455
▁females	-4456
▁improve	-4457
▁putting	-4458
▁teacher	-4459
▁towards	-4460
▁Greenday	-4461
▁Possibly	-4462
▁Slipknot	-4463
▁accurate	-4464
▁behavior	-4465
▁everyday	-4466
▁honestly	-4467
▁neighbor	-4468
▁pleasant	-4469
▁provided	-4470
▁repeated	-4471
▁searched	-4472
▁strongly	-4473
▁Certainly	-4474
▁Hopefully	-4475
▁McCartney	-4476
▁apologies	-4477
▁interview	-4478
▁marijuana	-4479
▁Definitely	-4480
▁activities	-4481
▁underneath	-4482
▁significant	-4483
▁intelligence	-4484
-1	-4485
ki	-4486
200	-4487
ada	-4488
bow	-4489
ean	-4490
hew	-4491
oph	-4492
rom	-4493
uct	-4494
▁Es	-4495
▁MC	-4496
▁ce	-4497
aire	-4498
cean	-4499
cket	-4500
eron	-4501
flix	-4502
gend	-4503
gged	-4504
lain	-4505
oles	-4506
oopz	-4507
ploy	-4508
▁Age	-4509
▁Art	-4510
▁Bit	-4511
▁Far	-4512
▁Hel	-4513
▁Mal	-4514
▁Pow	-4515
▁Rel	-4516
▁Res	-4517
▁Rod	-4518
▁Sir	-4519
▁WWE	-4520
▁bra	-4521
▁med	-4522
▁pig	-4523
ached	-4524
feren	-4525
opher	-4526
smack	-4527
ulate	-4528
▁Away	-4529
▁Cart	-4530
▁Cool	-4531
▁Gary	-4532
▁Gone	-4533
▁Hend	-4534
▁Korn	-4535
▁Lime	-4536
▁Road	-4537
▁Rome	-4538
▁Stop	-4539
▁Thom	-4540
▁Very	-4541
▁airs	-4542
▁asks	-4543
▁dogs	-4544
▁hipp	-4545
▁lips	-4546
▁ment	-4547
▁prem	-4548
▁ride	-4549
▁safe	-4550
irable	-4551
itions	-4552
▁Barry	-4553
▁Beast	-4554
▁Beaut	-4555
▁Kanye	-4556
▁Order	-4557
▁Rocky	-4558
▁Sarah	-4559
▁Stone	-4560
▁Vinci	-4561
▁apply	-4562
▁audio	-4563
▁chuck	-4564
▁clown	-4565
▁comic	-4566
▁encou	-4567
▁flash	-4568
▁loser	-4569
▁opera	-4570
▁piece	-4571
▁print	-4572
▁shame	-4573
▁total	-4574
▁trash	-4575
▁weeks	-4576
ilities	-4577
▁Anyone	-4578
▁Before	-4579
▁Lyrics	-4580
▁Second	-4581
▁System	-4582
▁employ	-4583
▁excess	-4584
▁groups	-4585
▁interc	-4586
▁kicked	-4587
▁scared	-4588
▁script	-4589
▁sevent	-4590
▁shower	-4591
▁tattoo	-4592
▁underw	-4593
▁Attempt	-4594
▁Channel	-4595
▁Rolling	-4596
▁Stefani	-4597
▁Wedding	-4598
▁average	-4599
▁biggest	-4600
▁control	-4601
▁deserve	-4602
▁leaving	-4603
▁lessons	-4604
▁partner	-4605
▁shouldn	-4606
▁sounded	-4607
▁wealthy	-4608
▁Pussycat	-4609
▁Question	-4610
▁deceased	-4611
▁director	-4612
▁feelings	-4613
▁funniest	-4614
▁official	-4615
▁performs	-4616
▁resemble	-4617
▁returned	-4618
▁Bearshare	-4619
▁Halloween	-4620
▁Therefore	-4621
▁effective	-4622
▁impressed	-4623
▁necessary	-4624
▁preferred	-4625
▁resembles	-4626
▁statement	-4627
▁concerning	-4628
▁possession	-4629
▁understood	-4630
▁unpleasant	-4631
▁possibility	-4632
▁professional	-4633
Th	-4634
da	-4635
vy	-4636
yo	-4637
?".	-4638
bel	-4639
bet	-4640
bit	-4641
con	-4642
den	-4643
hel	-4644
ita	-4645
ril	-4646
uel	-4647
vol	-4648
zen	-4649
,000	-4650
anga	-4651
aron	-4652
asty	-4653
idge	-4654
iscu	-4655
ooks	-4656
otic	-4657
reed	-4658
roll	-4659
star	-4660
ules	-4661
▁ABC	-4662
▁Aug	-4663
▁Bam	-4664
▁Emo	-4665
▁Fil	-4666
▁Goo	-4667
▁Hop	-4668
▁Lad	-4669
▁Leo	-4670
▁McG	-4671
▁bab	-4672
▁bag	-4673
▁ble	-4674
▁era	-4675
▁gig	-4676
▁ham	-4677
▁hey	-4678
▁lic	-4679
▁sil	-4680
abbit	-4681
ables	-4682
ander	-4683
aucas	-4684
gress	-4685
icked	-4686
inary	-4687
inine	-4688
order	-4689
usion	-4690
▁Carl	-4691
▁Cher	-4692
▁Ever	-4693
▁Jane	-4694
▁Jeff	-4695
▁Joey	-4696
▁Name	-4697
▁Nich	-4698
▁Rain	-4699
▁Sure	-4700
▁lesb	-4701
▁regg	-4702
▁sand	-4703
▁seat	-4704
▁sens	-4705
▁text	-4706
▁wide	-4707
idence	-4708
ipping	-4709
▁1990'	-4710
▁Again	-4711
▁Bubba	-4712
▁Dance	-4713
▁Earth	-4714
▁Hawth	-4715
▁India	-4716
▁Place	-4717
▁Seven	-4718
▁Smurf	-4719
▁Sugar	-4720
▁Tommy	-4721
▁claim	-4722
▁field	-4723
▁fifty	-4724
▁ghost	-4725
▁males	-4726
▁minds	-4727
▁pizza	-4728
▁spoil	-4729
▁thous	-4730
▁weeke	-4731
orgeous	-4732
▁Excuse	-4733
▁German	-4734
▁Manson	-4735
▁Marily	-4736
▁Virgin	-4737
▁arrest	-4738
▁asleep	-4739
▁avatar	-4740
▁camera	-4741
▁commun	-4742
▁indust	-4743
▁moving	-4744
▁murder	-4745
▁newest	-4746
▁planet	-4747
▁scenes	-4748
▁seemed	-4749
▁sequel	-4750
▁skills	-4751
▁thirty	-4752
▁Chinese	-4753
▁Mexican	-4754
▁Netflix	-4755
▁blondes	-4756
▁compare	-4757
▁fingers	-4758
▁preview	-4759
▁sisters	-4760
▁sitting	-4761
▁Godsmack	-4762
▁believes	-4763
▁building	-4764
▁complain	-4765
▁specific	-4766
▁surprise	-4767
▁teenager	-4768
▁Australia	-4769
▁Something	-4770
▁broadcast	-4771
▁confident	-4772
▁forgotten	-4773
▁newspaper	-4774
▁performer	-4775
▁seriously	-4776
▁Regardless	-4777
▁impossible	-4778
▁opportunity	-4779
20	-4780
30	-4781
AS	-4782
BS	-4783
DC	-4784
IM	-4785
IS	-4786
ND	-4787
Un	-4788
__	-4789
ec	-4790
ja	-4791
!!!	-4792
Get	-4793
ata	-4794
eds	-4795
equ	-4796
nor	-4797
off	-4798
osm	-4799
rog	-4800
uer	-4801
usi	-4802
vie	-4803
▁21	-4804
▁5'	-4805
▁Li	-4806
▁Ri	-4807
▁ok	-4808
aren	-4809
ault	-4810
avis	-4811
ency	-4812
iffe	-4813
imdb	-4814
irts	-4815
otte	-4816
pert	-4817
tery	-4818
uine	-4819
▁Abs	-4820
▁Bet	-4821
▁Cop	-4822
▁Del	-4823
▁Eve	-4824
▁Fin	-4825
▁Hoo	-4826
▁Int	-4827
▁Jen	-4828
▁Mat	-4829
▁Max	-4830
▁Pan	-4831
▁Pol	-4832
▁Ron	-4833
▁Squ	-4834
▁Thr	-4835
▁adv	-4836
▁dev	-4837
▁fab	-4838
▁god	-4839
▁lad	-4840
▁mic	-4841
▁pun	-4842
▁und	-4843
▁wel	-4844
attle	-4845
erous	-4846
grass	-4847
house	-4848
inate	-4849
ondon	-4850
rated	-4851
ucker	-4852
▁Bell	-4853
▁Bird	-4854
▁Dogg	-4855
▁Duck	-4856
▁Flav	-4857
▁Ipod	-4858
▁Jean	-4859
▁Joel	-4860
▁Pete	-4861
▁Rory	-4862
▁Send	-4863
▁Shop	-4864
▁Slim	-4865
▁Toby	-4866
▁Were	-4867
▁clip	-4868
▁crit	-4869
▁drug	-4870
▁harm	-4871
▁hott	-4872
▁lame	-4873
▁lazy	-4874
▁leng	-4875
▁mach	-4876
▁norm	-4877
▁pool	-4878
▁purp	-4879
▁sale	-4880
▁seek	-4881
▁sold	-4882
▁trip	-4883
▁wild	-4884
ainted	-4885
ential	-4886
hantom	-4887
▁2006.	-4888
▁Being	-4889
▁Faith	-4890
▁Grand	-4891
▁Hoopz	-4892
▁Louis	-4893
▁Media	-4894
▁Randy	-4895
▁Women	-4896
▁agent	-4897
▁badly	-4898
▁brand	-4899
▁calls	-4900
▁lines	-4901
▁lying	-4902
▁moder	-4903
▁naked	-4904
▁natur	-4905
▁novel	-4906
▁oppos	-4907
▁paint	-4908
▁penis	-4909
▁sched	-4910
▁shown	-4911
▁smoke	-4912
▁stage	-4913
▁stere	-4914
▁stink	-4915
▁twins	-4916
▁wears	-4917
ketball	-4918
▁August	-4919
▁Nickel	-4920
▁Spring	-4921
▁Yankee	-4922
▁appeal	-4923
▁author	-4924
▁buying	-4925
▁chorus	-4926
▁consum	-4927
▁insult	-4928
▁island	-4929
▁office	-4930
▁paying	-4931
▁posted	-4932
▁racist	-4933
▁secret	-4934
▁starts	-4935
▁typing	-4936
▁Alright	-4937
▁Marilyn	-4938
▁Network	-4939
▁Similar	-4940
▁clearly	-4941
▁convers	-4942
▁genuine	-4943
▁holding	-4944
▁install	-4945
▁matters	-4946
▁process	-4947
▁records	-4948
▁showing	-4949
▁starred	-4950
▁stories	-4951
▁examples	-4952
▁feminine	-4953
▁gorgeous	-4954
▁intended	-4955
▁learning	-4956
▁affection	-4957
▁relations	-4958
▁additional	-4959
▁constantly	-4960
▁ridiculous	-4961
▁combination	-4962
▁frightening	-4963
▁intercourse	-4964
▁understanding	-4965
-8	-4966
11	-4967
3,	-4968
8,	-4969
An	-4970
Bl	-4971
OT	-4972
We	-4973
bl	-4974
mm	-4975
oh	-4976
fit	-4977
gel	-4978
hot	-4979
law	-4980
noc	-4981
non	-4982
oda	-4983
oor	-4984
rib	-4985
roy	-4986
sit	-4987
ste	-4988
ued	-4989
ulk	-4990
▁40	-4991
▁9.	-4992
▁Ap	-4993
▁UK	-4994
agon	-4995
aret	-4996
chan	-4997
ello	-4998
feld	-4999
fest	-5000
ideo	-5001
irit	-5002
orne	-5003
soci	-5004
uing	-5005
▁...	-5006
▁Bry	-5007
▁Cas	-5008
▁Cat	-5009
▁Def	-5010
▁Die	-5011
▁Doo	-5012
▁Dor	-5013
▁Dyn	-5014
▁Fun	-5015
▁Loc	-5016
▁Log	-5017
▁Lud	-5018
▁NBC	-5019
▁Rad	-5020
▁Rub	-5021
▁Sci	-5022
▁Sub	-5023
▁Tor	-5024
▁arm	-5025
▁dom	-5026
▁dvd	-5027
▁fac	-5028
▁lim	-5029
▁log	-5030
▁mel	-5031
▁mil	-5032
▁pie	-5033
▁sci	-5034
▁ste	-5035
▁upd	-5036
▁vac	-5037
▁veh	-5038
▁via	-5039
achel	-5040
ading	-5041
arter	-5042
ashed	-5043
hanna	-5044
odiac	-5045
oleon	-5046
oline	-5047
ombie	-5048
onely	-5049
▁Bang	-5050
▁Capt	-5051
▁Cont	-5052
▁Crow	-5053
▁Didn	-5054
▁Fool	-5055
▁Free	-5056
▁Inst	-5057
▁Kurt	-5058
▁Lucy	-5059
▁Luke	-5060
▁Real	-5061
▁Sing	-5062
▁Stay	-5063
▁camp	-5064
▁draw	-5065
▁duck	-5066
▁dude	-5067
▁impl	-5068
▁info	-5069
▁land	-5070
▁reun	-5071
▁surv	-5072
▁terr	-5073
▁thor	-5074
▁vent	-5075
angers	-5076
google	-5077
inated	-5078
irates	-5079
ission	-5080
ouston	-5081
▁Chili	-5082
▁Irish	-5083
▁Minor	-5084
▁Newer	-5085
▁Paula	-5086
▁Raven	-5087
▁Romeo	-5088
▁Sound	-5089
▁Space	-5090
▁Thing	-5091
▁Wanna	-5092
▁apart	-5093
▁chall	-5094
▁dates	-5095
▁demon	-5096
▁feels	-5097
▁freak	-5098
▁honey	-5099
▁reply	-5100
▁smile	-5101
▁speed	-5102
▁train	-5103
▁value	-5104
▁walks	-5105
zlyrics	-5106
▁Dragon	-5107
▁London	-5108
▁Purcha	-5109
▁Things	-5110
▁Yellow	-5111
▁across	-5112
▁awhile	-5113
▁begins	-5114
▁belief	-5115
▁butter	-5116
▁compan	-5117
▁cowboy	-5118
▁driver	-5119
▁embarr	-5120
▁finale	-5121
▁horosc	-5122
▁object	-5123
▁poster	-5124
▁social	-5125
▁surely	-5126
▁techno	-5127
aucasian	-5128
download	-5129
▁Charmed	-5130
▁Chicken	-5131
▁Heights	-5132
▁Houston	-5133
▁Johnson	-5134
▁Kingdom	-5135
▁Neither	-5136
▁Peppers	-5137
▁concern	-5138
▁engaged	-5139
▁keeping	-5140
▁plastic	-5141
▁players	-5142
▁produce	-5143
▁torrent	-5144
▁watches	-5145
▁welcome	-5146
▁winning	-5147
▁Consider	-5148
▁adorable	-5149
▁astrolog	-5150
▁choosing	-5151
▁inclined	-5152
▁normally	-5153
▁opinions	-5154
▁sentence	-5155
▁visiting	-5156
▁vocalist	-5157
▁Charlotte	-5158
▁Everybody	-5159
▁Hawthorne	-5160
▁dependent	-5161
▁magazines	-5162
▁portrayed	-5163
▁Backstreet	-5164
▁impressive	-5165
▁experienced	-5166
-2	-5167
40	-5168
ET	-5169
If	-5170
OM	-5171
OU	-5172
ez	-5173
of	-5174
tv	-5175
.".	-5176
One	-5177
ays	-5178
bed	-5179
dow	-5180
ech	-5181
emo	-5182
rat	-5183
tes	-5184
una	-5185
ury	-5186
you	-5187
▁1,	-5188
▁14	-5189
▁60	-5190
▁90	-5191
▁FM	-5192
▁Py	-5193
▁Ra	-5194
▁Ru	-5195
Your	-5196
bage	-5197
bour	-5198
cers	-5199
heus	-5200
iami	-5201
ivia	-5202
list	-5203
ooby	-5204
page	-5205
rave	-5206
uddy	-5207
well	-5208
year	-5209
▁Cor	-5210
▁Elm	-5211
▁Hit	-5212
▁Kar	-5213
▁Mam	-5214
▁Mod	-5215
▁Mrs	-5216
▁Pac	-5217
▁Rog	-5218
▁Ten	-5219
▁USA	-5220
▁Wed	-5221
▁ach	-5222
▁boo	-5223
▁soc	-5224
▁suc	-5225
▁tap	-5226
▁tem	-5227
agers	-5228
ebook	-5229
iling	-5230
ining	-5231
ipped	-5232
istic	-5233
izing	-5234
known	-5235
night	-5236
ument	-5237
▁Alba	-5238
▁Epis	-5239
▁Hulk	-5240
▁Trek	-5241
▁base	-5242
▁drag	-5243
▁eggs	-5244
▁grew	-5245
▁hasn	-5246
▁ipod	-5247
▁jobs	-5248
▁nick	-5249
▁nons	-5250
▁twin	-5251
▁wire	-5252
ancing	-5253
nesday	-5254
▁1970'	-5255
▁About	-5256
▁Avril	-5257
▁Exorc	-5258
▁Franc	-5259
▁Hills	-5260
▁Julia	-5261
▁Light	-5262
▁Louie	-5263
▁Ricky	-5264
▁Satan	-5265
▁Start	-5266
▁Twins	-5267
▁Urban	-5268
▁amuse	-5269
▁block	-5270
▁chick	-5271
▁exerc	-5272
▁moved	-5273
▁nasty	-5274
▁notes	-5275
▁occup	-5276
▁query	-5277
▁rocks	-5278
▁scare	-5279
▁score	-5280
▁shock	-5281
▁sight	-5282
▁threw	-5283
▁tight	-5284
▁tough	-5285
▁trail	-5286
iscuous	-5287
onestly	-5288
ospital	-5289
▁Cowboy	-5290
▁Mickey	-5291
▁Richie	-5292
▁Sawyer	-5293
▁Should	-5294
▁Stevie	-5295
▁Wilson	-5296
▁active	-5297
▁device	-5298
▁double	-5299
▁extent	-5300
▁former	-5301
▁ground	-5302
▁height	-5303
▁higher	-5304
▁jumped	-5305
▁method	-5306
▁photos	-5307
▁placed	-5308
▁stayed	-5309
▁suffic	-5310
▁system	-5311
▁tastes	-5312
▁voices	-5313
azlyrics	-5314
▁Believe	-5315
▁British	-5316
▁Captain	-5317
▁England	-5318
▁Musical	-5319
▁Pickler	-5320
▁Presley	-5321
▁Rihanna	-5322
▁allowed	-5323
▁approve	-5324
▁brought	-5325
▁calling	-5326
▁enthusi	-5327
▁network	-5328
▁outcome	-5329
▁prostit	-5330
▁purpose	-5331
▁vehicle	-5332
▁Honestly	-5333
▁Whatever	-5334
▁electric	-5335
▁goodness	-5336
▁identify	-5337
▁pleasure	-5338
▁provides	-5339
▁referred	-5340
▁slightly	-5341
▁spending	-5342
▁theaters	-5343
▁versions	-5344
▁Brokeback	-5345
▁Spiderman	-5346
▁cancelled	-5347
▁classical	-5348
▁confusing	-5349
▁gentlemen	-5350
▁telephone	-5351
▁accomplish	-5352
▁definition	-5353
▁discussing	-5354
▁pornography	-5355
99	-5356
AD	-5357
IN	-5358
cy	-5359
yp	-5360
asm	-5361
bur	-5362
cre	-5363
how	-5364
irs	-5365
lee	-5366
lle	-5367
nia	-5368
oca	-5369
onk	-5370
sta	-5371
▁4,	-5372
▁Ba	-5373
▁Mo	-5374
▁Wr	-5375
▁Ya	-5376
▁pu	-5377
Tube	-5378
affy	-5379
aint	-5380
aker	-5381
alse	-5382
ancy	-5383
bean	-5384
cher	-5385
eton	-5386
face	-5387
fess	-5388
hest	-5389
ican	-5390
ikip	-5391
ived	-5392
omed	-5393
owse	-5394
pite	-5395
thon	-5396
▁(19	-5397
▁Amy	-5398
▁Arn	-5399
▁Boo	-5400
▁Box	-5401
▁Cam	-5402
▁Den	-5403
▁Dre	-5404
▁Dur	-5405
▁Gab	-5406
▁Hun	-5407
▁Hur	-5408
▁Imp	-5409
▁Jer	-5410
▁Lyn	-5411
▁Our	-5412
▁Row	-5413
▁Tre	-5414
▁Vol	-5415
▁ded	-5416
▁eld	-5417
▁nic	-5418
▁sus	-5419
▁tax	-5420
alker	-5421
andon	-5422
asing	-5423
atory	-5424
comes	-5425
epend	-5426
isces	-5427
light	-5428
ology	-5429
ongue	-5430
uerto	-5431
urbed	-5432
vable	-5433
venue	-5434
verse	-5435
world	-5436
▁Alab	-5437
▁Arab	-5438
▁DVDs	-5439
▁Deal	-5440
▁Evan	-5441
▁Josh	-5442
▁Know	-5443
▁Line	-5444
▁Need	-5445
▁Oper	-5446
▁Rest	-5447
▁Sant	-5448
▁Scar	-5449
▁Sein	-5450
▁Wild	-5451
▁Wolf	-5452
▁aged	-5453
▁bang	-5454
▁boot	-5455
▁brun	-5456
▁cake	-5457
▁crap	-5458
▁feed	-5459
▁gold	-5460
▁gram	-5461
▁hook	-5462
▁hung	-5463
▁idol	-5464
▁jazz	-5465
▁mark	-5466
▁math	-5467
▁meat	-5468
▁pure	-5469
▁push	-5470
▁tone	-5471
buster	-5472
mother	-5473
raphic	-5474
strong	-5475
▁Blood	-5476
▁Blues	-5477
▁Blunt	-5478
▁Britt	-5479
▁Clint	-5480
▁Doors	-5481
▁Fight	-5482
▁Hindi	-5483
▁Homer	-5484
▁Laugh	-5485
▁Magaz	-5486
▁Miami	-5487
▁Think	-5488
▁daily	-5489
▁devil	-5490
▁drown	-5491
▁force	-5492
▁fully	-5493
▁gonna	-5494
▁heads	-5495
▁jumps	-5496
▁lower	-5497
▁relig	-5498
▁subst	-5499
▁teach	-5500
▁terms	-5501
▁turns	-5502
▁youth	-5503
limited	-5504
▁Always	-5505
▁Angels	-5506
▁Barney	-5507
▁Holmes	-5508
▁Howard	-5509
▁Marley	-5510
▁Olivia	-5511
▁Thomas	-5512
▁associ	-5513
▁attack	-5514
▁beauty	-5515
▁caused	-5516
▁church	-5517
▁forced	-5518
▁heaven	-5519
▁hoping	-5520
▁inches	-5521
▁lately	-5522
▁liking	-5523
▁modern	-5524
▁prison	-5525
▁relate	-5526
▁reruns	-5527
▁showed	-5528
▁tongue	-5529
▁tracks	-5530
▁wishes	-5531
▁Central	-5532
▁Despite	-5533
▁Hendrix	-5534
▁Phantom	-5535
▁Scorpio	-5536
▁Vampire	-5537
▁YouTube	-5538
▁capable	-5539
▁comical	-5540
▁consume	-5541
▁culture	-5542
▁immense	-5543
▁killing	-5544
▁knowing	-5545
▁lesbian	-5546
▁missing	-5547
▁offense	-5548
▁remains	-5549
▁reviews	-5550
▁succeed	-5551
▁viruses	-5552
▁weekend	-5553
▁Favorite	-5554
▁Napoleon	-5555
▁Purchase	-5556
▁animated	-5557
▁arrested	-5558
▁hardcore	-5559
▁navigate	-5560
▁unlikely	-5561
▁Armstrong	-5562
▁Christina	-5563
▁Godfather	-5564
▁Wednesday	-5565
▁abilities	-5566
▁continues	-5567
▁determine	-5568
▁embarrass	-5569
▁emotional	-5570
▁encourage	-5571
▁excessive	-5572
▁intention	-5573
▁teenagers	-5574
▁originally	-5575
▁purchasing	-5576
▁restaurant	-5577
▁thoroughly	-5578
▁exceptional	-5579
▁participate	-5580
36	-5581
Ch	-5582
Do	-5583
ES	-5584
On	-5585
SN	-5586
So	-5587
gy	-5588
no	-5589
rs	-5590
aws	-5591
eno	-5592
fia	-5593
ida	-5594
ief	-5595
izz	-5596
lan	-5597
oen	-5598
reg	-5599
ubb	-5600
udd	-5601
▁$5	-5602
▁17	-5603
▁5,	-5604
▁6,	-5605
▁Ak	-5606
▁Ax	-5607
▁CA	-5608
▁LL	-5609
▁du	-5610
Girl	-5611
Rock	-5612
ague	-5613
atts	-5614
cted	-5615
ebob	-5616
edly	-5617
fish	-5618
free	-5619
hern	-5620
ised	-5621
issa	-5622
look	-5623
mbol	-5624
mers	-5625
neck	-5626
olas	-5627
udge	-5628
ulty	-5629
ummy	-5630
vern	-5631
ycle	-5632
▁Acc	-5633
▁Air	-5634
▁Ann	-5635
▁Cap	-5636
▁Det	-5637
▁Ear	-5638
▁Fur	-5639
▁Gun	-5640
▁Ill	-5641
▁Jee	-5642
▁Jet	-5643
▁Ree	-5644
▁Sus	-5645
▁URL	-5646
▁deg	-5647
▁der	-5648
▁dra	-5649
▁hob	-5650
▁joy	-5651
▁lip	-5652
▁mir	-5653
▁sin	-5654
aeton	-5655
amite	-5656
arely	-5657
ators	-5658
chuck	-5659
elled	-5660
ether	-5661
iston	-5662
ocket	-5663
oogie	-5664
ships	-5665
wives	-5666
▁Bull	-5667
▁Cena	-5668
▁Circ	-5669
▁Dies	-5670
▁Dumb	-5671
▁Fear	-5672
▁Fore	-5673
▁Fort	-5674
▁Holy	-5675
▁Lane	-5676
▁Mama	-5677
▁Mind	-5678
▁News	-5679
▁Rasc	-5680
▁Snow	-5681
▁Tree	-5682
▁True	-5683
▁Tues	-5684
▁Yang	-5685
▁bill	-5686
▁bite	-5687
▁calm	-5688
▁dont	-5689
▁fame	-5690
▁guit	-5691
▁hump	-5692
▁mama	-5693
▁note	-5694
▁prep	-5695
▁spam	-5696
▁spin	-5697
▁stom	-5698
▁tool	-5699
▁whis	-5700
▁wond	-5701
▁yeah	-5702
action	-5703
alking	-5704
ements	-5705
iamond	-5706
irteen	-5707
ishing	-5708
nocent	-5709
orious	-5710
ounced	-5711
ourney	-5712
phabet	-5713
phones	-5714
▁Adams	-5715
▁Alice	-5716
▁Berry	-5717
▁Blige	-5718
▁Candy	-5719
▁Devil	-5720
▁Drive	-5721
▁Elect	-5722
▁Elton	-5723
▁Funny	-5724
▁Going	-5725
▁Knock	-5726
▁Might	-5727
▁Oscar	-5728
▁Scott	-5729
▁Sleep	-5730
▁Small	-5731
▁Story	-5732
▁Today	-5733
▁adequ	-5734
▁basic	-5735
▁bunch	-5736
▁cards	-5737
▁cheer	-5738
▁cinem	-5739
▁crush	-5740
▁eager	-5741
▁equal	-5742
▁faith	-5743
▁infer	-5744
▁input	-5745
▁judge	-5746
▁lover	-5747
▁rated	-5748
▁separ	-5749
▁truck	-5750
▁trunk	-5751
▁tunes	-5752
▁virus	-5753
▁witch	-5754
▁Arnold	-5755
▁Biggie	-5756
▁Carter	-5757
▁Dreams	-5758
▁Mexico	-5759
▁Monkey	-5760
▁Puerto	-5761
▁Python	-5762
▁Rachel	-5763
▁Scooby	-5764
▁accent	-5765
▁afford	-5766
▁babies	-5767
▁breath	-5768
▁bright	-5769
▁compar	-5770
▁compat	-5771
▁delete	-5772
▁design	-5773
▁eleven	-5774
▁equals	-5775
▁filled	-5776
▁instru	-5777
▁kissed	-5778
▁loving	-5779
▁refers	-5780
▁specif	-5781
▁studio	-5782
▁transl	-5783
▁volume	-5784
ikipedia	-5785
▁Alabama	-5786
▁Cartoon	-5787
▁Current	-5788
▁Episode	-5789
▁Gilmore	-5790
▁Picture	-5791
▁Sandler	-5792
▁Tuesday	-5793
▁achieve	-5794
▁besides	-5795
▁confirm	-5796
▁consist	-5797
▁display	-5798
▁hottest	-5799
▁license	-5800
▁observe	-5801
▁opening	-5802
▁proceed	-5803
▁removed	-5804
▁romance	-5805
▁violent	-5806
▁youtube	-5807
▁Seinfeld	-5808
▁attitude	-5809
▁checking	-5810
▁contract	-5811
▁followed	-5812
▁opposite	-5813
▁realized	-5814
▁shopping	-5815
▁thoughts	-5816
▁violence	-5817
▁completed	-5818
▁delicious	-5819
▁influence	-5820
▁inquiring	-5821
▁offensive	-5822
▁screaming	-5823
▁typically	-5824
▁underwear	-5825
▁woodchuck	-5826
▁Absolutely	-5827
▁basketball	-5828
▁collection	-5829
▁difficulty	-5830
▁Christopher	-5831
▁competition	-5832
▁necessarily	-5833
▁occasionally	-5834
IT	-5835
Lo	-5836
ux	-5837
▁=	-5838
00.	-5839
She	-5840
aph	-5841
arr	-5842
ato	-5843
bec	-5844
cap	-5845
lev	-5846
lit	-5847
oup	-5848
ppy	-5849
▁29	-5850
▁Et	-5851
acks	-5852
ases	-5853
atra	-5854
cure	-5855
ffer	-5856
gery	-5857
ilty	-5858
isco	-5859
isha	-5860
izab	-5861
lass	-5862
oria	-5863
osen	-5864
outs	-5865
over	-5866
yles	-5867
▁Aer	-5868
▁Aud	-5869
▁Due	-5870
▁Dyl	-5871
▁Fed	-5872
▁Gay	-5873
▁Key	-5874
▁Lin	-5875
▁MSN	-5876
▁Meg	-5877
▁Neg	-5878
▁PSP	-5879
▁Par	-5880
▁Pie	-5881
▁Rhy	-5882
▁Sad	-5883
▁Sch	-5884
▁THE	-5885
▁VHS	-5886
▁Wat	-5887
▁cig	-5888
▁jer	-5889
▁mob	-5890
▁sam	-5891
▁sne	-5892
▁spy	-5893
▁tie	-5894
▁vom	-5895
▁wet	-5896
aches	-5897
anced	-5898
apton	-5899
berts	-5900
hered	-5901
hetic	-5902
icide	-5903
icles	-5904
nding	-5905
odies	-5906
ookie	-5907
orter	-5908
ously	-5909
stein	-5910
▁Anth	-5911
▁Buck	-5912
▁Damn	-5913
▁Elli	-5914
▁Febr	-5915
▁Hate	-5916
▁Lind	-5917
▁Mars	-5918
▁Mess	-5919
▁Pump	-5920
▁Regg	-5921
▁Save	-5922
▁Sher	-5923
▁Spar	-5924
▁Went	-5925
▁Yoda	-5926
▁avid	-5927
▁boat	-5928
▁cust	-5929
▁damn	-5930
▁dial	-5931
▁fill	-5932
▁geek	-5933
▁imit	-5934
▁laid	-5935
▁menu	-5936
▁pron	-5937
▁purs	-5938
▁scar	-5939
▁user	-5940
▁wise	-5941
ateful	-5942
istics	-5943
ursday	-5944
▁Adult	-5945
▁Album	-5946
▁Allen	-5947
▁Asian	-5948
▁Birth	-5949
▁Craig	-5950
▁Crash	-5951
▁Eight	-5952
▁Lucas	-5953
▁Phili	-5954
▁Sammy	-5955
▁Santa	-5956
▁Taffy	-5957
▁bears	-5958
▁blues	-5959
▁candy	-5960
▁cease	-5961
▁costs	-5962
▁discs	-5963
▁dying	-5964
▁false	-5965
▁fired	-5966
▁forth	-5967
▁frust	-5968
▁hated	-5969
▁legit	-5970
▁minor	-5971
▁moves	-5972
▁niece	-5973
▁noise	-5974
▁robot	-5975
▁solve	-5976
▁stole	-5977
▁uncom	-5978
▁usual	-5979
izabeth	-5980
orpheus	-5981
▁Austin	-5982
▁Center	-5983
▁Chains	-5984
▁Choose	-5985
▁Flatts	-5986
▁Franch	-5987
▁Horror	-5988
▁Master	-5989
▁Narnia	-5990
▁Sister	-5991
▁Stewie	-5992
▁Tucker	-5993
▁causes	-5994
▁dances	-5995
▁elimin	-5996
▁escape	-5997
▁faster	-5998
▁fellow	-5999
▁flying	-6000
▁health	-6001
▁invest	-6002
▁messed	-6003
▁offers	-6004
▁pocket	-6005
▁poorly	-6006
▁proper	-6007
▁skinny	-6008
▁target	-6009
▁thanks	-6010
▁upload	-6011
▁vocals	-6012
▁yelled	-6013
vernment	-6014
▁Clapton	-6015
▁Frankie	-6016
▁Roberts	-6017
▁Stewart	-6018
▁becomes	-6019
▁changes	-6020
▁destroy	-6021
▁dressed	-6022
▁elderly	-6023
▁emotion	-6024
▁fiction	-6025
▁general	-6026
▁lacking	-6027
▁meeting	-6028
▁pleased	-6029
▁promise	-6030
▁refrain	-6031
▁seconds	-6032
▁selling	-6033
▁sending	-6034
▁surgery	-6035
▁tattoos	-6036
▁visited	-6037
▁Dynamite	-6038
▁February	-6039
▁Magazine	-6040
▁Notebook	-6041
▁adequate	-6042
▁apparent	-6043
▁classics	-6044
▁concerts	-6045
▁deserves	-6046
▁innocent	-6047
▁instance	-6048
▁nickname	-6049
▁physical	-6050
▁sometime	-6051
▁thousand	-6052
▁Elizabeth	-6053
▁Obviously	-6054
▁Spongebob	-6055
▁amusement	-6056
▁childhood	-6057
▁depending	-6058
▁hopefully	-6059
▁languages	-6060
▁possesses	-6061
▁witnessed	-6062
▁Especially	-6063
▁Housewives	-6064
▁promiscuous	-6065
▁conversation	-6066
▁specifically	-6067
'?	-6068
10	-6069
25	-6070
Ex	-6071
Gr	-6072
RA	-6073
Wh	-6074
do	-6075
pa	-6076
xy	-6077
Can	-6078
ENT	-6079
Man	-6080
Pac	-6081
arm	-6082
awn	-6083
aze	-6084
cia	-6085
cle	-6086
hem	-6087
ito	-6088
ops	-6089
ova	-6090
roe	-6091
ugg	-6092
▁8.	-6093
▁AM	-6094
▁BB	-6095
▁Di	-6096
▁ID	-6097
▁Ka	-6098
▁NY	-6099
▁Ny	-6100
abor	-6101
airs	-6102
amin	-6103
asia	-6104
aste	-6105
ella	-6106
girl	-6107
iens	-6108
iker	-6109
ista	-6110
ival	-6111
laim	-6112
mare	-6113
mond	-6114
oofy	-6115
oove	-6116
oved	-6117
rele	-6118
rell	-6119
stal	-6120
umst	-6121
▁70'	-6122
▁Bre	-6123
▁Cob	-6124
▁Eur	-6125
▁Eye	-6126
▁Fan	-6127
▁Fre	-6128
▁Had	-6129
▁Hay	-6130
▁Isn	-6131
▁Jew	-6132
▁Low	-6133
▁Oct	-6134
▁Pin	-6135
▁Roy	-6136
▁Ted	-6137
▁Val	-6138
▁bac	-6139
▁bee	-6140
▁cup	-6141
▁doc	-6142
▁dry	-6143
▁kit	-6144
▁pir	-6145
▁que	-6146
▁tea	-6147
aming	-6148
chest	-6149
cious	-6150
encil	-6151
iring	-6152
istol	-6153
oenix	-6154
older	-6155
place	-6156
plane	-6157
round	-6158
stick	-6159
urity	-6160
▁Bart	-6161
▁Bond	-6162
▁Cham	-6163
▁Crue	-6164
▁Dist	-6165
▁Each	-6166
▁Emma	-6167
▁Ford	-6168
▁Grey	-6169
▁Kent	-6170
▁Lady	-6171
▁Land	-6172
▁Mond	-6173
▁Omar	-6174
▁Open	-6175
▁Plus	-6176
▁Read	-6177
▁Ring	-6178
▁Room	-6179
▁Ross	-6180
▁Sick	-6181
▁Wasn	-6182
▁Ying	-6183
▁arms	-6184
▁caut	-6185
▁crow	-6186
▁demo	-6187
▁dram	-6188
▁ears	-6189
▁elev	-6190
▁gift	-6191
▁horn	-6192
▁init	-6193
▁judg	-6194
▁plat	-6195
▁prim	-6196
▁puzz	-6197
▁reci	-6198
▁sole	-6199
▁stun	-6200
▁subs	-6201
▁unin	-6202
▁wake	-6203
▁warm	-6204
▁weap	-6205
▁wore	-6206
▁writ	-6207
anther	-6208
bourne	-6209
formed	-6210
grassi	-6211
incess	-6212
osmith	-6213
stream	-6214
▁Bryan	-6215
▁Bunny	-6216
▁Carib	-6217
▁Carol	-6218
▁Dylan	-6219
▁Enjoy	-6220
▁Flash	-6221
▁Hanks	-6222
▁Humps	-6223
▁Krist	-6224
▁Laffy	-6225
▁Mafia	-6226
▁Magic	-6227
▁Miche	-6228
▁Radcl	-6229
▁Robin	-6230
▁Using	-6231
▁Vince	-6232
▁Water	-6233
▁Years	-6234
▁added	-6235
▁alien	-6236
▁beats	-6237
▁dated	-6238
▁debut	-6239
▁divor	-6240
▁fifth	-6241
▁finds	-6242
▁flute	-6243
▁hello	-6244
▁kinds	-6245
▁mixed	-6246
▁perce	-6247
▁proud	-6248
▁queen	-6249
▁shout	-6250
▁strip	-6251
▁sugar	-6252
▁swear	-6253
▁table	-6254
▁twist	-6255
▁verse	-6256
▁weren	-6257
respect	-6258
▁Brooks	-6259
▁Diesel	-6260
▁Images	-6261
▁Jackie	-6262
▁Justin	-6263
▁Knight	-6264
▁Motley	-6265
▁Prison	-6266
▁Really	-6267
▁Scream	-6268
▁Silver	-6269
▁Steven	-6270
▁airing	-6271
▁bottle	-6272
▁closer	-6273
▁closet	-6274
▁corner	-6275
▁demand	-6276
▁depart	-6277
▁detest	-6278
▁donkey	-6279
▁excuse	-6280
▁expert	-6281
▁failed	-6282
▁format	-6283
▁guilty	-6284
▁idiots	-6285
▁ladies	-6286
▁legend	-6287
▁length	-6288
▁makeup	-6289
▁myster	-6290
▁offend	-6291
▁pounds	-6292
▁pulled	-6293
▁reside	-6294
▁rumors	-6295
▁speech	-6296
▁sports	-6297
▁square	-6298
▁states	-6299
▁symbol	-6300
▁versus	-6301
ographic	-6302
▁Aniston	-6303
▁Besides	-6304
▁Dancing	-6305
▁Philipp	-6306
▁Pirates	-6307
▁Washing	-6308
▁arrived	-6309
▁clarify	-6310
▁closing	-6311
▁credits	-6312
▁exclaim	-6313
▁fortune	-6314
▁garbage	-6315
▁graphic	-6316
▁guitars	-6317
▁hanging	-6318
▁highest	-6319
▁machine	-6320
▁mothers	-6321
▁picking	-6322
▁portion	-6323
▁private	-6324
▁rapping	-6325
▁referen	-6326
▁reflect	-6327
▁seeking	-6328
▁skilled	-6329
▁whoever	-6330
▁Aquarius	-6331
▁Children	-6332
▁Thursday	-6333
▁alphabet	-6334
▁audience	-6335
▁channels	-6336
▁demonstr	-6337
▁directly	-6338
▁disliked	-6339
▁expected	-6340
▁gangster	-6341
▁gasoline	-6342
▁independ	-6343
▁industry	-6344
▁inferior	-6345
▁memories	-6346
▁numerous	-6347
▁pathetic	-6348
▁producer	-6349
▁products	-6350
▁relevant	-6351
▁standing	-6352
▁thirteen	-6353
▁wondered	-6354
▁bearshare	-6355
▁enjoyment	-6356
▁immensely	-6357
▁represent	-6358
▁background	-6359
▁compatible	-6360
▁repeatedly	-6361
▁Alternative	-6362
▁Blockbuster	-6363
▁grandmother	-6364
!)	-6365
!.	-6366
4,	-6367
Br	-6368
Me	-6369
Sm	-6370
ea	-6371
lt	-6372
pm	-6373
xx	-6374
zo	-6375
▁*	-6376
11.	-6377
Bad	-6378
Big	-6379
Let	-6380
abe	-6381
ads	-6382
ala	-6383
anu	-6384
die	-6385
dog	-6386
end	-6387
esc	-6388
ias	-6389
isy	-6390
ndy	-6391
nik	-6392
pty	-6393
tle	-6394
vey	-6395
▁23	-6396
▁6.	-6397
▁Cy	-6398
▁Hu	-6399
▁Kr	-6400
▁di	-6401
▁hi	-6402
acre	-6403
anne	-6404
ebri	-6405
fers	-6406
fold	-6407
hent	-6408
hone	-6409
iers	-6410
igan	-6411
ippi	-6412
izes	-6413
ober	-6414
ocus	-6415
pton	-6416
ques	-6417
rate	-6418
ssip	-6419
trig	-6420
uate	-6421
udes	-6422
unge	-6423
urai	-6424
vide	-6425
weat	-6426
▁AOL	-6427
▁Aff	-6428
▁Eat	-6429
▁Ele	-6430
▁Eva	-6431
▁Gra	-6432
▁HIM	-6433
▁Lag	-6434
▁Lie	-6435
▁Mem	-6436
▁Nin	-6437
▁Pad	-6438
▁Poo	-6439
▁Ros	-6440
▁Sel	-6441
▁Spr	-6442
▁Toy	-6443
▁Wor	-6444
▁Yet	-6445
▁awk	-6446
▁bot	-6447
▁fee	-6448
▁gum	-6449
▁mer	-6450
▁mus	-6451
▁mut	-6452
▁ord	-6453
▁ped	-6454
▁row	-6455
▁toy	-6456
Where	-6457
acket	-6458
ademy	-6459
andom	-6460
arant	-6461
arden	-6462
aurus	-6463
ender	-6464
iders	-6465
obile	-6466
orida	-6467
ounce	-6468
ribut	-6469
stone	-6470
tones	-6471
▁Anim	-6472
▁Been	-6473
▁Chad	-6474
▁Cube	-6475
▁Deep	-6476
▁Emer	-6477
▁Evil	-6478
▁Gram	-6479
▁Half	-6480
▁Hood	-6481
▁IPod	-6482
▁Jake	-6483
▁Kore	-6484
▁Mass	-6485
▁Nove	-6486
▁Rapp	-6487
▁Same	-6488
▁Shut	-6489
▁Soon	-6490
▁agre	-6491
▁arri	-6492
▁goal	-6493
▁goth	-6494
▁hers	-6495
▁hips	-6496
▁lock	-6497
▁mall	-6498
▁nude	-6499
▁peer	-6500
▁pimp	-6501
▁pity	-6502
▁puts	-6503
▁quot	-6504
▁reve	-6505
▁root	-6506
▁subm	-6507
▁wolf	-6508
araoke	-6509
aughty	-6510
avigne	-6511
ective	-6512
ellect	-6513
hentic	-6514
lished	-6515
oustic	-6516
uppets	-6517
▁Aaron	-6518
▁Alive	-6519
▁Allow	-6520
▁Banks	-6521
▁Begin	-6522
▁Cents	-6523
▁China	-6524
▁Darth	-6525
▁Gener	-6526
▁Heavy	-6527
▁Idiot	-6528
▁Libra	-6529
▁Loves	-6530
▁Momma	-6531
▁Mouse	-6532
▁Phill	-6533
▁Shrek	-6534
▁Sonny	-6535
▁Trust	-6536
▁aside	-6537
▁autom	-6538
▁bitch	-6539
▁board	-6540
▁bones	-6541
▁brows	-6542
▁clips	-6543
▁faces	-6544
▁forty	-6545
▁hesit	-6546
▁links	-6547
▁loose	-6548
▁manga	-6549
▁mouse	-6550
▁polit	-6551
▁prote	-6552
▁reads	-6553
▁remem	-6554
▁reput	-6555
▁river	-6556
▁squir	-6557
▁talks	-6558
▁tooth	-6559
▁unfam	-6560
▁weigh	-6561
▁wings	-6562
ication	-6563
ogether	-6564
▁Answer	-6565
▁Ashlee	-6566
▁Awards	-6567
▁Dollar	-6568
▁Golden	-6569
▁Itunes	-6570
▁Monroe	-6571
▁Murray	-6572
▁Poison	-6573
▁Priest	-6574
▁Purple	-6575
▁Rascal	-6576
▁Rather	-6577
▁Reeves	-6578
▁Secret	-6579
▁Silent	-6580
▁Square	-6581
▁Travis	-6582
▁Zombie	-6583
▁accomp	-6584
▁applic	-6585
▁brings	-6586
▁browse	-6587
▁catchy	-6588
▁chosen	-6589
▁clever	-6590
▁commit	-6591
▁dragon	-6592
▁excite	-6593
▁exists	-6594
▁gender	-6595
▁gossip	-6596
▁handle	-6597
▁inebri	-6598
▁intrig	-6599
▁master	-6600
▁mirror	-6601
▁mobile	-6602
▁ninety	-6603
▁occurs	-6604
▁pencil	-6605
▁purple	-6606
▁random	-6607
▁reggae	-6608
▁sitcom	-6609
▁smells	-6610
▁verify	-6611
▁voting	-6612
▁waiter	-6613
▁writer	-6614
gressive	-6615
▁Anthony	-6616
▁Charles	-6617
▁Destiny	-6618
▁Elliott	-6619
▁Lavigne	-6620
▁Santana	-6621
▁Stephen	-6622
▁Tonight	-6623
▁awkward	-6624
▁beloved	-6625
▁cigaret	-6626
▁concept	-6627
▁effects	-6628
▁english	-6629
▁evening	-6630
▁existed	-6631
▁inquiry	-6632
▁legally	-6633
▁letting	-6634
▁listens	-6635
▁opposed	-6636
▁overall	-6637
▁parties	-6638
▁percent	-6639
▁pretend	-6640
▁ratings	-6641
▁reasons	-6642
▁setting	-6643
▁stalker	-6644
▁Coldplay	-6645
▁November	-6646
▁Research	-6647
▁Watching	-6648
▁audition	-6649
▁azlyrics	-6650
▁backside	-6651
▁breaking	-6652
▁brunette	-6653
▁circumst	-6654
▁comments	-6655
▁comparis	-6656
▁creative	-6657
▁describe	-6658
▁deserved	-6659
▁dramatic	-6660
▁emotions	-6661
▁exercise	-6662
▁function	-6663
▁homework	-6664
▁hospital	-6665
▁identity	-6666
▁intimate	-6667
▁laughter	-6668
▁mentally	-6669
▁obtained	-6670
▁properly	-6671
▁relaxing	-6672
▁schedule	-6673
▁starting	-6674
▁transfer	-6675
▁According	-6676
▁Aerosmith	-6677
▁Americans	-6678
▁Caribbean	-6679
▁Desperate	-6680
▁according	-6681
▁attending	-6682
▁breakfast	-6683
▁direction	-6684
▁elsewhere	-6685
▁existence	-6686
▁happening	-6687
▁intellect	-6688
▁posterior	-6689
▁president	-6690
▁producers	-6691
▁publicity	-6692
▁seventeen	-6693
▁standards	-6694
▁unlimited	-6695
▁Nickelback	-6696
▁Television	-6697
▁Washington	-6698
▁generation	-6699
▁government	-6700
▁introduced	-6701
▁production	-6702
▁represents	-6703
▁sufficient	-6704
▁unfamiliar	-6705
▁astrological	-6706
▁pornographic	-6707
▁satisfactory	-6708
▁disappointing	-6709
-4	-6710
-5	-6711
81	-6712
9,	-6713
CD	-6714
Go	-6715
He	-6716
IC	-6717
ID	-6718
Jo	-6719
TL	-6720
dr	-6721
ko	-6722
ni	-6723
wo	-6724
wr	-6725
ws	-6726
ya	-6727
ado	-6728
apa	-6729
bre	-6730
cur	-6731
ern	-6732
gal	-6733
hee	-6734
hey	-6735
hin	-6736
igg	-6737
ila	-6738
iro	-6739
iva	-6740
met	-6741
oma	-6742
ona	-6743
oni	-6744
pel	-6745
pin	-6746
psi	-6747
ran	-6748
roc	-6749
▁45	-6750
▁Az	-6751
▁Ju	-6752
▁Lu	-6753
▁Na	-6754
▁OC	-6755
▁OK	-6756
▁Yu	-6757
▁fu	-6758
▁pm	-6759
▁yo	-6760
****	-6761
Mart	-6762
Take	-6763
ades	-6764
aliy	-6765
anny	-6766
ardo	-6767
athy	-6768
bing	-6769
card	-6770
chen	-6771
ckey	-6772
coln	-6773
enry	-6774
eral	-6775
ergy	-6776
ffee	-6777
fire	-6778
five	-6779
good	-6780
hank	-6781
hers	-6782
iana	-6783
iley	-6784
ilot	-6785
inis	-6786
inky	-6787
lies	-6788
mind	-6789
opes	-6790
otta	-6791
oyal	-6792
rock	-6793
sure	-6794
▁10,	-6795
▁195	-6796
▁Ave	-6797
▁Cel	-6798
▁Dra	-6799
▁Eag	-6800
▁Him	-6801
▁Hum	-6802
▁Pay	-6803
▁Rac	-6804
▁Sab	-6805
▁Sag	-6806
▁Sal	-6807
▁Sol	-6808
▁Tra	-6809
▁aqu	-6810
▁cor	-6811
▁def	-6812
▁fav	-6813
▁hyp	-6814
▁inj	-6815
▁opt	-6816
▁pet	-6817
▁rub	-6818
▁shr	-6819
▁sle	-6820
▁tow	-6821
▁ult	-6822
▁wow	-6823
Dream	-6824
Every	-6825
acris	-6826
anity	-6827
azing	-6828
belie	-6829
ctors	-6830
ennis	-6831
iable	-6832
icing	-6833
ising	-6834
oking	-6835
oulev	-6836
ticip	-6837
udget	-6838
ustle	-6839
vivor	-6840
▁100.	-6841
▁1990	-6842
▁Anna	-6843
▁Ares	-6844
▁Cind	-6845
▁Clay	-6846
▁Cody	-6847
▁Dece	-6848
▁Depe	-6849
▁Easy	-6850
▁Fast	-6851
▁Gill	-6852
▁Hank	-6853
▁Hold	-6854
▁Jojo	-6855
▁Jump	-6856
▁Kyle	-6857
▁Mont	-6858
▁Move	-6859
▁Must	-6860
▁Neil	-6861
▁Nine	-6862
▁Ridd	-6863
▁Russ	-6864
▁Sara	-6865
▁Such	-6866
▁Swim	-6867
▁Talk	-6868
▁Tina	-6869
▁Troy	-6870
▁Vall	-6871
▁Wire	-6872
▁acts	-6873
▁amer	-6874
▁bank	-6875
▁bart	-6876
▁capt	-6877
▁cars	-6878
▁data	-6879
▁emer	-6880
▁fict	-6881
▁frog	-6882
▁fuck	-6883
▁hill	-6884
▁keys	-6885
▁lick	-6886
▁meal	-6887
▁milk	-6888
▁poem	-6889
▁pole	-6890
▁pret	-6891
▁qual	-6892
▁risk	-6893
▁rule	-6894
▁scam	-6895
▁spot	-6896
▁thus	-6897
▁tick	-6898
▁triv	-6899
▁untr	-6900
aliyah	-6901
ashing	-6902
ellite	-6903
encing	-6904
ficial	-6905
iminal	-6906
itchie	-6907
omeday	-6908
ushing	-6909
▁Based	-6910
▁Bever	-6911
▁Brand	-6912
▁Broad	-6913
▁Clown	-6914
▁Court	-6915
▁Final	-6916
▁Garth	-6917
▁Gonna	-6918
▁Greet	-6919
▁Karen	-6920
▁Keanu	-6921
▁Leave	-6922
▁Lover	-6923
▁Mandy	-6924
▁Monty	-6925
▁Murph	-6926
▁Peace	-6927
▁Reese	-6928
▁Shady	-6929
▁Shawn	-6930
▁Stern	-6931
▁Terry	-6932
▁Train	-6933
▁Trans	-6934
▁Video	-6935
▁Virgo	-6936
▁angel	-6937
▁belly	-6938
▁bless	-6939
▁couch	-6940
▁dolls	-6941
▁equiv	-6942
▁fixed	-6943
▁fools	-6944
▁hurts	-6945
▁pound	-6946
▁raise	-6947
▁sales	-6948
▁sells	-6949
▁shake	-6950
▁sharp	-6951
▁study	-6952
ability	-6953
chestra	-6954
looking	-6955
ressing	-6956
resting	-6957
vantage	-6958
▁Amanda	-6959
▁Around	-6960
▁Cancer	-6961
▁Comics	-6962
▁Coming	-6963
▁Dennis	-6964
▁Fender	-6965
▁Gerard	-6966
▁Groove	-6967
▁Hammer	-6968
▁Letter	-6969
▁Miller	-6970
▁Monday	-6971
▁Movies	-6972
▁Pisces	-6973
▁Powter	-6974
▁Rabbit	-6975
▁Saving	-6976
▁Sleepy	-6977
▁Sponge	-6978
▁Taurus	-6979
▁Turner	-6980
▁Warner	-6981
▁behave	-6982
▁bodies	-6983
▁coffee	-6984
▁copies	-6985
▁drinks	-6986
▁engage	-6987
▁folder	-6988
▁gather	-6989
▁genius	-6990
▁harder	-6991
▁nights	-6992
▁parked	-6993
▁premie	-6994
▁remark	-6995
▁status	-6996
▁stream	-6997
▁sucked	-6998
▁taught	-6999
▁titles	-7000
▁victim	-7001
▁Aaliyah	-7002
▁Florida	-7003
▁Forever	-7004
▁Freddie	-7005
▁Gangsta	-7006
▁Goodbye	-7007
▁Holiday	-7008
▁January	-7009
▁Lincoln	-7010
▁Matthew	-7011
▁Monster	-7012
▁October	-7013
▁Panther	-7014
▁Records	-7015
▁Rejects	-7016
▁Ritchie	-7017
▁Thunder	-7018
▁anticip	-7019
▁anyways	-7020
▁article	-7021
▁causing	-7022
▁eagerly	-7023
▁entered	-7024
▁flowers	-7025
▁instant	-7026
▁jumping	-7027
▁natural	-7028
▁passion	-7029
▁posters	-7030
▁prevent	-7031
▁rainbow	-7032
▁redneck	-7033
▁replace	-7034
▁resembl	-7035
▁retired	-7036
▁seventh	-7037
▁shocked	-7038
▁sixteen	-7039
▁staying	-7040
▁stereot	-7041
▁teenage	-7042
▁trailer	-7043
▁vampire	-7044
▁venture	-7045
▁writers	-7046
▁yelling	-7047
▁Degrassi	-7048
▁Exorcist	-7049
▁Kentucky	-7050
▁Ludacris	-7051
▁Osbourne	-7052
▁acoustic	-7053
▁acquired	-7054
▁canceled	-7055
▁cleaning	-7056
▁entirety	-7057
▁involves	-7058
▁occurred	-7059
▁squirrel	-7060
▁stranger	-7061
▁stripper	-7062
▁terrific	-7063
▁Beautiful	-7064
▁Caucasian	-7065
▁Chocolate	-7066
▁Currently	-7067
▁Disturbed	-7068
▁Messenger	-7069
▁Radcliffe	-7070
▁Underwood	-7071
▁bartender	-7072
▁biography	-7073
▁depressed	-7074
▁education	-7075
▁messenger	-7076
▁remaining	-7077
▁repeating	-7078
▁responded	-7079
▁responses	-7080
▁traveling	-7081
▁wrestling	-7082
▁acquainted	-7083
▁comparison	-7084
▁containing	-7085
▁disrespect	-7086
▁equivalent	-7087
▁frightened	-7088
▁irritating	-7089
▁mainstream	-7090
▁Philippines	-7091
▁appreciated	-7092
▁comfortable	-7093
▁independent	-7094
▁suggestions	-7095
▁accidentally	-7096
▁neighborhood	-7097
▁relationships	-7098
▁uncomfortable	-7099
,'	-7100
AN	-7101
BO	-7102
EL	-7103
VU	-7104
hu	-7105
ji	-7106
ku	-7107
uf	-7108
vo	-7109
wh	-7110
ye	-7111
ym	-7112
▁0	-7113
COM	-7114
Say	-7115
Sha	-7116
Why	-7117
aud	-7118
bul	-7119
gic	-7120
ilt	-7121
ipe	-7122
irk	-7123
lly	-7124
olk	-7125
omy	-7126
oug	-7127
pes	-7128
pit	-7129
sen	-7130
sha	-7131
ula	-7132
ulp	-7133
val	-7134
wow	-7135
yes	-7136
ync	-7137
▁--	-7138
▁7.	-7139
▁70	-7140
▁Ca	-7141
▁IS	-7142
▁IV	-7143
▁Jr	-7144
▁SO	-7145
▁fo	-7146
▁vs	-7147
Baby	-7148
Okay	-7149
aged	-7150
anie	-7151
anut	-7152
aver	-7153
bell	-7154
berg	-7155
bird	-7156
cise	-7157
cool	-7158
dden	-7159
ells	-7160
eman	-7161
emon	-7162
iche	-7163
ifty	-7164
ires	-7165
iser	-7166
ises	-7167
just	-7168
nell	-7169
ocon	-7170
oebe	-7171
olen	-7172
onic	-7173
onto	-7174
ooke	-7175
rets	-7176
rors	-7177
rove	-7178
yond	-7179
▁182	-7180
▁Agu	-7181
▁Ain	-7182
▁Atl	-7183
▁BET	-7184
▁Bra	-7185
▁Clo	-7186
▁Doc	-7187
▁Foo	-7188
▁III	-7189
▁Kag	-7190
▁LOL	-7191
▁Lab	-7192
▁McL	-7193
▁Mix	-7194
▁Nas	-7195
▁Num	-7196
▁Pal	-7197
▁Pig	-7198
▁Rep	-7199
▁Sea	-7200
▁Syd	-7201
▁Tam	-7202
▁Tha	-7203
▁Ver	-7204
▁Web	-7205
▁Wol	-7206
▁anx	-7207
▁arg	-7208
▁bub	-7209
▁doo	-7210
▁ess	-7211
▁hen	-7212
▁nap	-7213
▁nin	-7214
▁pee	-7215
▁roo	-7216
▁sib	-7217
▁vis	-7218
Hello	-7219
agger	-7220
aired	-7221
alian	-7222
asure	-7223
atomy	-7224
bered	-7225
berry	-7226
break	-7227
gines	-7228
hetto	-7229
itney	-7230
oster	-7231
owing	-7232
pants	-7233
ppard	-7234
quest	-7235
rosby	-7236
stage	-7237
ucket	-7238
ungle	-7239
vices	-7240
while	-7241
zilla	-7242
▁(200	-7243
▁182.	-7244
▁Alan	-7245
▁Bear	-7246
▁Cras	-7247
▁Cree	-7248
▁Duke	-7249
▁Edge	-7250
▁Face	-7251
▁Feel	-7252
▁Foxx	-7253
▁Gump	-7254
▁Haha	-7255
▁Hann	-7256
▁Hart	-7257
▁Host	-7258
▁Jade	-7259
▁Jimi	-7260
▁Jose	-7261
▁Kenn	-7262
▁Keys	-7263
▁Khan	-7264
▁Lear	-7265
▁Lenn	-7266
▁Leno	-7267
▁Leon	-7268
▁Lose	-7269
▁Ohio	-7270
▁Poke	-7271
▁Port	-7272
▁Ride	-7273
▁Sabb	-7274
▁Seth	-7275
▁Sith	-7276
▁Sony	-7277
▁Term	-7278
▁Town	-7279
▁Viol	-7280
▁adop	-7281
▁ages	-7282
▁ares	-7283
▁bars	-7284
▁blog	-7285
▁cash	-7286
▁cass	-7287
▁cher	-7288
▁clim	-7289
▁cond	-7290
▁conv	-7291
▁dare	-7292
▁dirt	-7293
▁disk	-7294
▁disp	-7295
▁guns	-7296
▁imdb	-7297
▁insp	-7298
▁loat	-7299
▁mart	-7300
▁mast	-7301
▁perm	-7302
▁plug	-7303
▁pray	-7304
▁pump	-7305
▁surm	-7306
▁valu	-7307
▁weak	-7308
▁woke	-7309
▁zero	-7310
apping	-7311
erella	-7312
erline	-7313
guitar	-7314
inator	-7315
iously	-7316
iverse	-7317
semble	-7318
verine	-7319
worthy	-7320
▁Anime	-7321
▁Boond	-7322
▁Buble	-7323
▁Buddy	-7324
▁Buffy	-7325
▁Class	-7326
▁Conan	-7327
▁Diddy	-7328
▁Duran	-7329
▁Emily	-7330
▁Force	-7331
▁Gates	-7332
▁Guess	-7333
▁Henry	-7334
▁Janet	-7335
▁Jeezy	-7336
▁Latin	-7337
▁Logan	-7338
▁Ocean	-7339
▁Pepsi	-7340
▁Produ	-7341
▁Sally	-7342
▁Songs	-7343
▁Spike	-7344
▁Techn	-7345
▁Tiger	-7346
▁Tyler	-7347
▁Uncle	-7348
▁acted	-7349
▁blame	-7350
▁codes	-7351
▁concl	-7352
▁conse	-7353
▁court	-7354
▁crash	-7355
▁crowd	-7356
▁daddy	-7357
▁defec	-7358
▁estab	-7359
▁focus	-7360
▁funds	-7361
▁hosts	-7362
▁hotel	-7363
▁ideal	-7364
▁kinda	-7365
▁ocean	-7366
▁organ	-7367
▁punch	-7368
▁roles	-7369
▁rules	-7370
▁sauce	-7371
▁saved	-7372
▁sheet	-7373
▁sides	-7374
▁steps	-7375
▁tears	-7376
▁tiger	-7377
▁unapp	-7378
▁vomit	-7379
escence	-7380
issippi	-7381
outhern	-7382
▁Andrew	-7383
▁Barbie	-7384
▁Blonde	-7385
▁Canada	-7386
▁Cobain	-7387
▁Comedy	-7388
▁Crosby	-7389
▁During	-7390
▁Freddy	-7391
▁Grammy	-7392
▁Having	-7393
▁Incred	-7394
▁Island	-7395
▁Laguna	-7396
▁Launch	-7397
▁Lionel	-7398
▁Monica	-7399
▁Murphy	-7400
▁Myster	-7401
▁Office	-7402
▁Phoebe	-7403
▁Rocket	-7404
▁Scient	-7405
▁Smurfs	-7406
▁Stupid	-7407
▁Target	-7408
▁Valent	-7409
▁Wicked	-7410
▁adults	-7411
▁apples	-7412
▁barely	-7413
▁beyond	-7414
▁budget	-7415
▁bullet	-7416
▁chords	-7417
▁cinema	-7418
▁clowns	-7419
▁critic	-7420
▁decade	-7421
▁deeply	-7422
▁hiding	-7423
▁impact	-7424
▁itunes	-7425
▁jockey	-7426
▁joined	-7427
▁microp	-7428
▁overly	-7429
▁pieces	-7430
▁refuse	-7431
▁rhymes	-7432
▁ruined	-7433
▁signed	-7434
▁spirit	-7435
▁spouse	-7436
▁stolen	-7437
▁styles	-7438
▁suffer	-7439
▁temper	-7440
▁treats	-7441
▁virgin	-7442
▁zodiac	-7443
irmative	-7444
oulevard	-7445
standing	-7446
▁Academy	-7447
▁Beverly	-7448
▁Correct	-7449
▁Fiction	-7450
▁Firstly	-7451
▁General	-7452
▁Germany	-7453
▁Looking	-7454
▁Million	-7455
▁Phoenix	-7456
▁Profess	-7457
▁Sinatra	-7458
▁Toronto	-7459
▁Torrent	-7460
▁Zepplin	-7461
▁abandon	-7462
▁benefit	-7463
▁challen	-7464
▁connect	-7465
▁cookies	-7466
▁covered	-7467
▁dresses	-7468
▁engines	-7469
▁equally	-7470
▁falling	-7471
▁filming	-7472
▁greater	-7473
▁growing	-7474
▁kissing	-7475
▁listing	-7476
▁moments	-7477
▁officer	-7478
▁prefers	-7479
▁reached	-7480
▁renting	-7481
▁revenge	-7482
▁roughly	-7483
▁science	-7484
▁selfish	-7485
▁stomach	-7486
▁subscri	-7487
▁suicide	-7488
▁talents	-7489
▁touring	-7490
▁unknown	-7491
▁urinate	-7492
▁various	-7493
▁wanting	-7494
▁weather	-7495
▁Birthday	-7496
▁Crashers	-7497
▁December	-7498
▁Leonardo	-7499
▁Morrison	-7500
▁Navigate	-7501
▁Roseanne	-7502
▁Tomorrow	-7503
▁airplane	-7504
▁baseball	-7505
▁buttocks	-7506
▁carrying	-7507
▁changing	-7508
▁compared	-7509
▁disorder	-7510
▁document	-7511
▁eighteen	-7512
▁grateful	-7513
▁homepage	-7514
▁increase	-7515
▁keyboard	-7516
▁nonsense	-7517
▁previews	-7518
▁religion	-7519
▁reported	-7520
▁screamed	-7521
▁selected	-7522
▁solution	-7523
▁speakers	-7524
▁stealing	-7525
▁students	-7526
▁wrestler	-7527
▁Greetings	-7528
▁Wikipedia	-7529
▁advantage	-7530
▁appearing	-7531
▁backwards	-7532
▁committed	-7533
▁horoscope	-7534
▁interests	-7535
▁sincerely	-7536
▁afterwards	-7537
▁aggressive	-7538
▁classified	-7539
▁comparable	-7540
▁completing	-7541
▁connection	-7542
▁excitement	-7543
▁headphones	-7544
▁inebriated	-7545
▁photograph	-7546
▁practicing	-7547
▁remembered	-7548
▁throughout	-7549
▁Mississippi	-7550
▁Squarepants	-7551
▁advertising	-7552
▁programming	-7553
▁resemblance	-7554
▁experiencing	-7555
▁instructions	-7556
▁performances	-7557
▁advertisement	-7558
▁characteristics	-7559
)"	-7560
15	-7561
21	-7562
67	-7563
80	-7564
92	-7565
AL	-7566
Al	-7567
CR	-7568
NL	-7569
Pl	-7570
ls	-7571
sn	-7572
uz	-7573
▁[	-7574
Are	-7575
abs	-7576
adi	-7577
ags	-7578
ams	-7579
ari	-7580
arn	-7581
bes	-7582
bin	-7583
cks	-7584
don	-7585
dul	-7586
ege	-7587
esh	-7588
fet	-7589
fly	-7590
ggy	-7591
ibb	-7592
inc	-7593
isd	-7594
itz	-7595
ogg	-7596
opp	-7597
ota	-7598
pet	-7599
ses	-7600
she	-7601
ums	-7602
▁$2	-7603
▁27	-7604
▁34	-7605
▁66	-7606
▁9,	-7607
▁99	-7608
▁Hy	-7609
▁KC	-7610
▁LA	-7611
▁RE	-7612
▁VI	-7613
▁Wy	-7614
▁ho	-7615
Back	-7616
Have	-7617
Some	-7618
This	-7619
addy	-7620
aded	-7621
aind	-7622
alie	-7623
alsa	-7624
anim	-7625
bles	-7626
case	-7627
ecut	-7628
enth	-7629
ezer	-7630
gera	-7631
gers	-7632
give	-7633
icia	-7634
iled	-7635
illi	-7636
illz	-7637
imme	-7638
inci	-7639
ints	-7640
inyl	-7641
ipes	-7642
itiz	-7643
lict	-7644
loyd	-7645
mate	-7646
nine	-7647
oser	-7648
ouge	-7649
ownt	-7650
pent	-7651
pped	-7652
ract	-7653
razy	-7654
rett	-7655
riss	-7656
roat	-7657
rupt	-7658
tone	-7659
town	-7660
uled	-7661
unky	-7662
usta	-7663
utur	-7664
vere	-7665
▁90'	-7666
▁Axl	-7667
▁Bab	-7668
▁Cab	-7669
▁Cle	-7670
▁Cos	-7671
▁Din	-7672
▁Dun	-7673
▁Fab	-7674
▁Fem	-7675
▁Fer	-7676
▁Hud	-7677
▁Ins	-7678
▁Jar	-7679
▁Kel	-7680
▁Les	-7681
▁Ozz	-7682
▁Pic	-7683
▁Rus	-7684
▁Ter	-7685
▁Unt	-7686
▁Wet	-7687
▁Wit	-7688
▁asp	-7689
▁ath	-7690
▁beg	-7691
▁cab	-7692
▁deb	-7693
▁emp	-7694
▁hug	-7695
▁las	-7696
▁lil	-7697
▁map	-7698
▁oil	-7699
▁pan	-7700
▁pic	-7701
▁rat	-7702
▁rip	-7703
▁rot	-7704
▁sar	-7705
▁tan	-7706
▁tou	-7707
▁zoo	-7708
Beaut	-7709
acker	-7710
ailor	-7711
aling	-7712
anged	-7713
anges	-7714
ardon	-7715
cakes	-7716
gency	-7717
gging	-7718
ician	-7719
idden	-7720
ilies	-7721
ingit	-7722
ingly	-7723
iocre	-7724
ocaly	-7725
odeon	-7726
orgia	-7727
oston	-7728
ource	-7729
raged	-7730
shine	-7731
shirt	-7732
store	-7733
udity	-7734
unate	-7735
urtle	-7736
ushed	-7737
▁Akon	-7738
▁Aqua	-7739
▁Aren	-7740
▁Benn	-7741
▁Cage	-7742
▁Cast	-7743
▁Cond	-7744
▁Cong	-7745
▁Curt	-7746
▁Date	-7747
▁Dean	-7748
▁Dear	-7749
▁Dion	-7750
▁Dora	-7751
▁Earl	-7752
▁Exam	-7753
▁Expl	-7754
▁Fair	-7755
▁Gene	-7756
▁Hawk	-7757
▁Jaws	-7758
▁Joan	-7759
▁Kens	-7760
▁Lean	-7761
▁Lore	-7762
▁Mean	-7763
▁Mile	-7764
▁Nano	-7765
▁Nash	-7766
▁Page	-7767
▁Pooh	-7768
▁Porn	-7769
▁Rico	-7770
▁Stan	-7771
▁Tool	-7772
▁Vict	-7773
▁Wing	-7774
▁Xbox	-7775
▁Year	-7776
▁Zach	-7777
▁bury	-7778
▁cave	-7779
▁craw	-7780
▁deaf	-7781
▁dull	-7782
▁eats	-7783
▁excl	-7784
▁fart	-7785
▁fits	-7786
▁heck	-7787
▁horr	-7788
▁laws	-7789
▁lets	-7790
▁lies	-7791
▁lion	-7792
▁loss	-7793
▁masc	-7794
▁murd	-7795
▁nerd	-7796
▁pant	-7797
▁pays	-7798
▁pill	-7799
▁poll	-7800
▁poop	-7801
▁pric	-7802
▁rack	-7803
▁raps	-7804
▁ridd	-7805
▁sits	-7806
▁slap	-7807
▁snow	-7808
▁symp	-7809
▁tale	-7810
▁taxi	-7811
▁trad	-7812
▁unex	-7813
aching	-7814
amazon	-7815
ermaid	-7816
estern	-7817
iteria	-7818
lerate	-7819
redith	-7820
ricorn	-7821
spring	-7822
uction	-7823
volver	-7824
▁2006,	-7825
▁Abdul	-7826
▁Alien	-7827
▁Bolly	-7828
▁Champ	-7829
▁Clear	-7830
▁Drink	-7831
▁Email	-7832
▁Ethan	-7833
▁Futur	-7834
▁Guide	-7835
▁Locke	-7836
▁Money	-7837
▁Olsen	-7838
▁Opera	-7839
▁Party	-7840
▁Penny	-7841
▁River	-7842
▁Scene	-7843
▁Spain	-7844
▁Spend	-7845
▁Stars	-7846
▁Throw	-7847
▁Touch	-7848
▁Vader	-7849
▁Veron	-7850
▁Weird	-7851
▁Wentz	-7852
▁Write	-7853
▁anore	-7854
▁areas	-7855
▁await	-7856
▁balls	-7857
▁birds	-7858
▁breed	-7859
▁brief	-7860
▁chain	-7861
▁condu	-7862
▁corre	-7863
▁deals	-7864
▁devel	-7865
▁drawn	-7866
▁empty	-7867
▁entry	-7868
▁finan	-7869
▁frequ	-7870
▁fruit	-7871
▁guard	-7872
▁hairc	-7873
▁hobby	-7874
▁imbec	-7875
▁jelly	-7876
▁juice	-7877
▁loses	-7878
▁momma	-7879
▁paste	-7880
▁persu	-7881
▁proof	-7882
▁prove	-7883
▁reser	-7884
▁shape	-7885
▁sixty	-7886
▁sneak	-7887
▁spong	-7888
▁spons	-7889
▁uncle	-7890
▁valid	-7891
▁wheel	-7892
aterial	-7893
festyle	-7894
pending	-7895
quiring	-7896
ssingit	-7897
taining	-7898
▁Alicia	-7899
▁Anyway	-7900
▁Beauty	-7901
▁Beding	-7902
▁Boston	-7903
▁Brooke	-7904
▁Burton	-7905
▁Carmen	-7906
▁Dumber	-7907
▁Enough	-7908
▁Father	-7909
▁Hearts	-7910
▁Hostel	-7911
▁Hunter	-7912
▁Inform	-7913
▁Jessie	-7914
▁Jewish	-7915
▁Korean	-7916
▁Lonely	-7917
▁McGraw	-7918
▁Mister	-7919
▁Morris	-7920
▁Police	-7921
▁Robbie	-7922
▁Sounds	-7923
▁Watson	-7924
▁Weezer	-7925
▁amazed	-7926
▁amazon	-7927
▁amused	-7928
▁awards	-7929
▁banana	-7930
▁borrow	-7931
▁bridge	-7932
▁closed	-7933
▁custom	-7934
▁differ	-7935
▁energy	-7936
▁gigaby	-7937
▁hammer	-7938
▁humans	-7939
▁hungry	-7940
▁ignore	-7941
▁indeed	-7942
▁infant	-7943
▁itself	-7944
▁leaves	-7945
▁losing	-7946
▁market	-7947
▁midget	-7948
▁models	-7949
▁motion	-7950
▁needle	-7951
▁nerves	-7952
▁passes	-7953
▁perver	-7954
▁ponder	-7955
▁raised	-7956
▁remote	-7957
▁reveal	-7958
▁riding	-7959
▁slight	-7960
▁spring	-7961
▁stared	-7962
▁stress	-7963
▁sudden	-7964
▁superb	-7965
▁talked	-7966
▁tricks	-7967
▁wasted	-7968
▁writes	-7969
centrate	-7970
entially	-7971
ittarius	-7972
ulations	-7973
▁Emerald	-7974
▁Heather	-7975
▁Instead	-7976
▁Journey	-7977
▁Kenshin	-7978
▁Killers	-7979
▁Leppard	-7980
▁Margera	-7981
▁Napster	-7982
▁Ramones	-7983
▁Relient	-7984
▁Revenge	-7985
▁Sabbath	-7986
▁Samurai	-7987
▁Shannon	-7988
▁Sundays	-7989
▁Twisted	-7990
▁Vincent	-7991
▁advance	-7992
▁artific	-7993
▁browser	-7994
▁carries	-7995
▁casting	-7996
▁comedic	-7997
▁costume	-7998
▁crossed	-7999
▁desired	-8000
▁desires	-8001
▁diction	-8002
▁foreign	-8003
▁grammar	-8004
▁guarant	-8005
▁limited	-8006
▁lottery	-8007
▁offered	-8008
▁partake	-8009
▁partial	-8010
▁passing	-8011
▁persist	-8012
▁pervert	-8013
▁procure	-8014
▁psychic	-8015
▁recieve	-8016
▁returns	-8017
▁signing	-8018
▁smaller	-8019
▁smiling	-8020
▁spoiled	-8021
▁surmise	-8022
▁traffic	-8023
▁typical	-8024
▁unbelie	-8025
▁windows	-8026
bearshare	-8027
▁Anderson	-8028
▁Broadway	-8029
▁Carolina	-8030
▁Godzilla	-8031
▁Massacre	-8032
▁Meredith	-8033
▁Scarface	-8034
▁Together	-8035
▁absolute	-8036
▁cheating	-8037
▁comedian	-8038
▁comedies	-8039
▁criteria	-8040
▁divorced	-8041
▁employed	-8042
▁entering	-8043
▁evidence	-8044
▁extraord	-8045
▁fabulous	-8046
▁listings	-8047
▁mediocre	-8048
▁observed	-8049
▁playlist	-8050
▁pleasing	-8051
▁portrays	-8052
▁refriger	-8053
▁services	-8054
▁shipping	-8055
▁surround	-8056
▁tolerate	-8057
▁valuable	-8058
▁Breakfast	-8059
▁Depending	-8060
▁Entertain	-8061
▁Federline	-8062
▁Francisco	-8063
▁Letterman	-8064
▁Listening	-8065
▁Nightmare	-8066
▁President	-8067
▁Wolverine	-8068
▁accompany	-8069
▁animation	-8070
▁auditions	-8071
▁authentic	-8072
▁basically	-8073
▁community	-8074
▁desirable	-8075
▁fortunate	-8076
▁lifestyle	-8077
▁perfectly	-8078
▁pointless	-8079
▁potential	-8080
▁producing	-8081
▁providing	-8082
▁reasoning	-8083
▁regularly	-8084
▁Smallville	-8085
▁Terminator	-8086
▁contestant	-8087
▁dictionary	-8088
▁directions	-8089
▁microphone	-8090
▁popularity	-8091
▁positively	-8092
▁selections	-8093
▁situations	-8094
▁victorious	-8095
▁Bedingfield	-8096
▁destination	-8097
▁entertainer	-8098
▁imagination	-8099
▁incorrectly	-8100
▁instruments	-8101
▁recommended	-8102
▁unappealing	-8103
▁additionally	-8104
▁consistently	-8105
▁difficulties	-8106
▁Alternatively	-8107
▁exceptionally	-8108
▁significantly	-8109
-3	-8110
18	-8111
4@	-8112
66	-8113
?'	-8114
AM	-8115
AR	-8116
Am	-8117
Fr	-8118
IE	-8119
OF	-8120
OO	-8121
Sc	-8122
Sh	-8123
US	-8124
UT	-8125
VE	-8126
hh	-8127
mi	-8128
▁+	-8129
▁/	-8130
▁:	-8131
▁?	-8132
***	-8133
:30	-8134
Boy	-8135
For	-8136
Hop	-8137
ION	-8138
Not	-8139
Run	-8140
Tom	-8141
Yes	-8142
aco	-8143
adu	-8144
aga	-8145
ami	-8146
atu	-8147
cra	-8148
dig	-8149
dis	-8150
fun	-8151
idy	-8152
ika	-8153
lah	-8154
loc	-8155
mag	-8156
mor	-8157
nam	-8158
nee	-8159
new	-8160
oms	-8161
onc	-8162
ora	-8163
pop	-8164
por	-8165
pse	-8166
rio	-8167
rip	-8168
uls	-8169
wan	-8170
win	-8171
yed	-8172
yll	-8173
zer	-8174
▁$3	-8175
▁$4	-8176
▁22	-8177
▁Du	-8178
▁ER	-8179
▁HD	-8180
▁HP	-8181
▁IT	-8182
▁PC	-8183
▁PM	-8184
▁Sa	-8185
▁TI	-8186
▁UP	-8187
▁XM	-8188
▁fi	-8189
▁mi	-8190
..."	-8191
Come	-8192
Like	-8193
Time	-8194
Walk	-8195
With	-8196
____	-8197
ains	-8198
akin	-8199
aley	-8200
ario	-8201
arya	-8202
atio	-8203
blet	-8204
date	-8205
fits	-8206
hand	-8207
ingo	-8208
inny	-8209
ione	-8210
life	-8211
loaf	-8212
made	-8213
noon	-8214
nyrd	-8215
oman	-8216
onio	-8217
orer	-8218
pret	-8219
real	-8220
rees	-8221
spel	-8222
thur	-8223
ucks	-8224
uded	-8225
uity	-8226
uper	-8227
urns	-8228
wish	-8229
▁12.	-8230
▁13.	-8231
▁15,	-8232
▁50'	-8233
▁Ass	-8234
▁Bay	-8235
▁Ber	-8236
▁Bin	-8237
▁CBS	-8238
▁Dee	-8239
▁Der	-8240
▁Dig	-8241
▁Ext	-8242
▁Gro	-8243
▁Hmm	-8244
▁Hob	-8245
▁Ira	-8246
▁Lam	-8247
▁Liz	-8248
▁McP	-8249
▁Med	-8250
▁Mia	-8251
▁Mul	-8252
▁Nik	-8253
▁Pix	-8254
▁Ral	-8255
▁Reg	-8256
▁SVU	-8257
▁Ska	-8258
▁Sop	-8259
▁Sue	-8260
▁Tot	-8261
▁Wis	-8262
▁Won	-8263
▁bum	-8264
▁bye	-8265
▁div	-8266
▁ego	-8267
▁esc	-8268
▁fle	-8269
▁hon	-8270
▁hoo	-8271
▁huh	-8272
▁pal	-8273
▁sea	-8274
▁shy	-8275
▁toe	-8276
▁tur	-8277
▁wha	-8278
.....	-8279
Crazy	-8280
Green	-8281
Sugar	-8282
adian	-8283
aging	-8284
allas	-8285
amous	-8286
apers	-8287
chand	-8288
eeves	-8289
ettes	-8290
front	-8291
ghter	-8292
hange	-8293
igned	-8294
iment	-8295
izard	-8296
lined	-8297
ooter	-8298
orpor	-8299
ouses	-8300
plete	-8301
reedy	-8302
spoon	-8303
stars	-8304
steen	-8305
ublic	-8306
uding	-8307
unior	-8308
unset	-8309
uppet	-8310
urban	-8311
uters	-8312
▁8:00	-8313
▁Andy	-8314
▁Bing	-8315
▁Bren	-8316
▁Bugs	-8317
▁Case	-8318
▁Chop	-8319
▁Dana	-8320
▁Demi	-8321
▁Disc	-8322
▁Doom	-8323
▁Dope	-8324
▁Elmo	-8325
▁Ends	-8326
▁Ferg	-8327
▁Fish	-8328
▁Flow	-8329
▁Goes	-8330
▁Hair	-8331
▁Hand	-8332
▁Hear	-8333
▁Herm	-8334
▁Hero	-8335
▁Hits	-8336
▁Holl	-8337
▁Hong	-8338
▁Hook	-8339
▁Inch	-8340
▁Judd	-8341
▁Kind	-8342
▁Kirk	-8343
▁Lots	-8344
▁Magn	-8345
▁Mick	-8346
▁Myst	-8347
▁Papa	-8348
▁Pier	-8349
▁Post	-8350
▁Spot	-8351
▁Stud	-8352
▁Supp	-8353
▁THAT	-8354
▁Used	-8355
▁Vent	-8356
▁Wish	-8357
▁Work	-8358
▁alot	-8359
▁anti	-8360
▁argu	-8361
▁bees	-8362
▁bowl	-8363
▁bugs	-8364
▁diet	-8365
▁exit	-8366
▁fasc	-8367
▁fest	-8368
▁fret	-8369
▁grav	-8370
▁gray	-8371
▁heat	-8372
▁jerk	-8373
▁jury	-8374
▁lift	-8375
▁mell	-8376
▁neat	-8377
▁outd	-8378
▁puss	-8379
▁rape	-8380
▁redu	-8381
▁rout	-8382
▁sees	-8383
▁sets	-8384
▁ship	-8385
▁shoe	-8386
▁soup	-8387
▁susp	-8388
▁unne	-8389
▁vari	-8390
▁vill	-8391
Donald	-8392
Family	-8393
asions	-8394
athers	-8395
cially	-8396
cisely	-8397
earing	-8398
ection	-8399
elcome	-8400
haired	-8401
icking	-8402
illing	-8403
lahoma	-8404
outube	-8405
pected	-8406
quired	-8407
rating	-8408
tering	-8409
urbing	-8410
vation	-8411
▁Bands	-8412
▁Busta	-8413
▁Chick	-8414
▁Close	-8415
▁Creat	-8416
▁Detro	-8417
▁Diego	-8418
▁Ellen	-8419
▁Enemy	-8420
▁Fools	-8421
▁Gotta	-8422
▁Halle	-8423
▁Honey	-8424
▁Indie	-8425
▁Judas	-8426
▁Lloyd	-8427
▁Maria	-8428
▁Nails	-8429
▁Osama	-8430
▁Paige	-8431
▁Pizza	-8432
▁Pluto	-8433
▁Press	-8434
▁Remix	-8435
▁Rider	-8436
▁Roger	-8437
▁Rouge	-8438
▁Russe	-8439
▁Spark	-8440
▁Speci	-8441
▁Speed	-8442
▁Stand	-8443
▁Steel	-8444
▁Thats	-8445
▁Times	-8446
▁Trace	-8447
▁Trick	-8448
▁abuse	-8449
▁alike	-8450
▁anger	-8451
▁arrog	-8452
▁athle	-8453
▁bacon	-8454
▁basis	-8455
▁cared	-8456
▁chair	-8457
▁clock	-8458
▁clues	-8459
▁conce	-8460
▁corny	-8461
▁curse	-8462
▁doors	-8463
▁downt	-8464
▁eaten	-8465
▁error	-8466
▁fairy	-8467
▁flick	-8468
▁fresh	-8469
▁grown	-8470
▁guest	-8471
▁habit	-8472
▁iPods	-8473
▁kills	-8474
▁owner	-8475
▁pages	-8476
▁plans	-8477
▁sandw	-8478
▁shave	-8479
▁shots	-8480
▁sixth	-8481
▁slang	-8482
▁smack	-8483
▁snake	-8484
▁south	-8485
▁spect	-8486
▁split	-8487
▁spoke	-8488
▁stood	-8489
▁swing	-8490
▁tapes	-8491
▁tends	-8492
▁toast	-8493
▁towel	-8494
▁undes	-8495
▁unimp	-8496
▁views	-8497
▁vinyl	-8498
▁witty	-8499
aithful	-8500
aughtry	-8501
emption	-8502
fiction	-8503
ighters	-8504
itional	-8505
ization	-8506
licated	-8507
myspace	-8508
omerang	-8509
quences	-8510
▁Africa	-8511
▁Artist	-8512
▁Carlos	-8513
▁Celebr	-8514
▁Curtis	-8515
▁Eagles	-8516
▁Easter	-8517
▁Europe	-8518
▁Forget	-8519
▁Foster	-8520
▁Geisha	-8521
▁Goblet	-8522
▁Grease	-8523
▁Kidman	-8524
▁Legend	-8525
▁Living	-8526
▁Marvin	-8527
▁Oscars	-8528
▁Pepper	-8529
▁Prayer	-8530
▁Record	-8531
▁Series	-8532
▁Shania	-8533
▁Sharon	-8534
▁Spirit	-8535
▁Switch	-8536
▁Theron	-8537
▁Unlike	-8538
▁Wither	-8539
▁Zodiac	-8540
▁aliens	-8541
▁banned	-8542
▁bubble	-8543
▁center	-8544
▁circus	-8545
▁convin	-8546
▁copied	-8547
▁counts	-8548
▁desper	-8549
▁endure	-8550
▁exotic	-8551
▁flower	-8552
▁formal	-8553
▁french	-8554
▁gaming	-8555
▁gospel	-8556
▁hairst	-8557
▁hearts	-8558
▁hippie	-8559
▁invent	-8560
▁irrele	-8561
▁laughs	-8562
▁launch	-8563
▁lights	-8564
▁lonely	-8565
▁loudly	-8566
▁mainly	-8567
▁nudity	-8568
▁occupy	-8569
▁orange	-8570
▁outfit	-8571
▁prompt	-8572
▁pursue	-8573
▁rabbit	-8574
▁reject	-8575
▁repair	-8576
▁shared	-8577
▁spider	-8578
▁sponge	-8579
▁spread	-8580
▁sticks	-8581
▁stinks	-8582
▁switch	-8583
▁theirs	-8584
▁topics	-8585
▁toward	-8586
▁tuning	-8587
▁update	-8588
▁whisky	-8589
▁worlds	-8590
chandise	-8591
ifferent	-8592
iversary	-8593
ocalypse	-8594
▁Amazing	-8595
▁Anatomy	-8596
▁Atlanta	-8597
▁Company	-8598
▁Depends	-8599
▁Fallout	-8600
▁Fantasy	-8601
▁Forrest	-8602
▁Getting	-8603
▁Italian	-8604
▁Melissa	-8605
▁Natalie	-8606
▁Natasha	-8607
▁Perform	-8608
▁Pokemon	-8609
▁Private	-8610
▁Rangers	-8611
▁Rappers	-8612
▁Raymond	-8613
▁Russian	-8614
▁Station	-8615
▁Through	-8616
▁Usually	-8617
▁Violent	-8618
▁Wallace	-8619
▁Whitney	-8620
▁anxious	-8621
▁appoint	-8622
▁assault	-8623
▁bedroom	-8624
▁belongs	-8625
▁beneath	-8626
▁chances	-8627
▁cheated	-8628
▁classes	-8629
▁compete	-8630
▁complim	-8631
▁develop	-8632
▁digital	-8633
▁examine	-8634
▁explode	-8635
▁fantasy	-8636
▁figures	-8637
▁fishing	-8638
▁funeral	-8639
▁funnier	-8640
▁genital	-8641
▁glasses	-8642
▁grandma	-8643
▁hitting	-8644
▁magical	-8645
▁manager	-8646
▁monster	-8647
▁naughty	-8648
▁painful	-8649
▁profile	-8650
▁quarter	-8651
▁redhead	-8652
▁reminis	-8653
▁replies	-8654
▁reunion	-8655
▁riddles	-8656
▁rooster	-8657
▁smarter	-8658
▁society	-8659
▁sources	-8660
▁strings	-8661
▁studios	-8662
▁thunder	-8663
▁turning	-8664
▁unclear	-8665
▁western	-8666
▁wishing	-8667
▁worried	-8668
ittorrent	-8669
▁Canadian	-8670
▁Chainsaw	-8671
▁Charlize	-8672
▁Daughtry	-8673
▁Fighting	-8674
▁Futurama	-8675
▁Goodness	-8676
▁Lawrence	-8677
▁McDonald	-8678
▁Michelle	-8679
▁Morpheus	-8680
▁Negative	-8681
▁Nicholas	-8682
▁Oklahoma	-8683
▁Scorpios	-8684
▁Survivor	-8685
▁Thriller	-8686
▁accepted	-8687
▁achieved	-8688
▁advanced	-8689
▁american	-8690
▁anorexic	-8691
▁assuming	-8692
▁bothered	-8693
▁cassette	-8694
▁challeng	-8695
▁childish	-8696
▁counting	-8697
▁creating	-8698
▁dislikes	-8699
▁families	-8700
▁football	-8701
▁fourteen	-8702
▁hesitate	-8703
▁messages	-8704
▁mountain	-8705
▁movement	-8706
▁perceive	-8707
▁powerful	-8708
▁preferen	-8709
▁premiere	-8710
▁produces	-8711
▁projects	-8712
▁receives	-8713
▁requires	-8714
▁ringtone	-8715
▁settings	-8716
▁suddenly	-8717
▁superman	-8718
▁swimming	-8719
▁touching	-8720
▁ultimate	-8721
▁utilized	-8722
▁Bollywood	-8723
▁Franchize	-8724
▁Professor	-8725
▁Questions	-8726
▁Sevenfold	-8727
▁afternoon	-8728
▁agreement	-8729
▁cellphone	-8730
▁continued	-8731
▁copyright	-8732
▁dedicated	-8733
▁desperate	-8734
▁distribut	-8735
▁expecting	-8736
▁explained	-8737
▁guarantee	-8738
▁judgement	-8739
▁naturally	-8740
▁overrated	-8741
▁published	-8742
▁receiving	-8743
▁reggaeton	-8744
▁satellite	-8745
▁testicles	-8746
ratulations	-8747
▁Cinderella	-8748
▁Yellowcard	-8749
▁artificial	-8750
▁associated	-8751
▁beneficial	-8752
▁disturbing	-8753
▁expression	-8754
▁horoscopes	-8755
▁irrelevant	-8756
▁legitimate	-8757
▁preferable	-8758
▁profession	-8759
▁prostitute	-8760
▁reasonable	-8761
▁responding	-8762
▁unfaithful	-8763
▁Affirmative	-8764
▁Downloading	-8765
▁Evanescence	-8766
▁complaining	-8767
▁complicated	-8768
▁description	-8769
▁differently	-8770
▁embarrassed	-8771
▁excessively	-8772
▁merchandise	-8773
▁outstanding	-8774
▁responsible	-8775
▁restaurants	-8776
▁undesirable	-8777
▁Entertainment	-8778
▁circumstances	-8779
▁consideration	-8780
▁knowledgeable	-8781
!,	-8782
-0	-8783
-7	-8784
-9	-8785
2)	-8786
23	-8787
24	-8788
6,	-8789
70	-8790
85	-8791
AC	-8792
Cr	-8793
Ha	-8794
LC	-8795
MC	-8796
NN	-8797
NR	-8798
PM	-8799
ST	-8800
WA	-8801
WW	-8802
aj	-8803
cr	-8804
100	-8805
Any	-8806
Bro	-8807
CSI	-8808
Cha	-8809
Dan	-8810
Sex	-8811
aly	-8812
avo	-8813
cul	-8814
edi	-8815
eem	-8816
elf	-8817
esy	-8818
gen	-8819
iar	-8820
icy	-8821
ido	-8822
lie	-8823
mel	-8824
min	-8825
nda	-8826
omp	-8827
pic	-8828
rob	-8829
six	-8830
ulf	-8831
ups	-8832
urd	-8833
who	-8834
ylv	-8835
▁1:	-8836
▁2"	-8837
▁28	-8838
▁95	-8839
▁AI	-8840
▁AJ	-8841
▁Aw	-8842
▁CH	-8843
▁DC	-8844
▁EP	-8845
▁FY	-8846
▁Ja	-8847
▁LP	-8848
▁MJ	-8849
▁Mi	-8850
▁NS	-8851
▁SG	-8852
▁TO	-8853
▁Ti	-8854
▁Ut	-8855
▁od	-8856
▁om	-8857
-800	-8858
Best	-8859
Char	-8860
Free	-8861
Full	-8862
High	-8863
Kate	-8864
Part	-8865
Wake	-8866
Well	-8867
Wire	-8868
anas	-8869
ando	-8870
asal	-8871
atab	-8872
avin	-8873
away	-8874
azza	-8875
beat	-8876
bors	-8877
cury	-8878
ease	-8879
ench	-8880
ercy	-8881
etic	-8882
ffin	-8883
foot	-8884
four	-8885
gate	-8886
hend	-8887
itor	-8888
kast	-8889
kers	-8890
kind	-8891
leck	-8892
lime	-8893
ogue	-8894
olks	-8895
omen	-8896
oned	-8897
oner	-8898
oody	-8899
oops	-8900
ores	-8901
ovie	-8902
owed	-8903
pass	-8904
phis	-8905
pile	-8906
punk	-8907
rait	-8908
reck	-8909
riel	-8910
rina	-8911
some	-8912
tera	-8913
ties	-8914
ulge	-8915
umpy	-8916
uous	-8917
walk	-8918
whel	-8919
wind	-8920
wing	-8921
▁$1.	-8922
▁11.	-8923
▁13,	-8924
▁15.	-8925
▁360	-8926
▁Aly	-8927
▁Ast	-8928
▁Ban	-8929
▁Bau	-8930
▁Bun	-8931
▁Bus	-8932
▁Coo	-8933
▁Cro	-8934
▁Cut	-8935
▁Deg	-8936
▁Exp	-8937
▁Gal	-8938
▁Gen	-8939
▁Gos	-8940
▁HBO	-8941
▁Hag	-8942
▁Han	-8943
▁Hat	-8944
▁Hom	-8945
▁Ian	-8946
▁Joy	-8947
▁Kit	-8948
▁Lay	-8949
▁Mer	-8950
▁Mid	-8951
▁Mis	-8952
▁Mob	-8953
▁Mun	-8954
▁NOT	-8955
▁NWA	-8956
▁Nel	-8957
▁Nov	-8958
▁Pak	-8959
▁Rag	-8960
▁Ren	-8961
▁Ret	-8962
▁Rev	-8963
▁SNL	-8964
▁Set	-8965
▁Soc	-8966
▁Ult	-8967
▁Ven	-8968
▁Www	-8969
▁YOU	-8970
▁Yea	-8971
▁fro	-8972
▁gor	-8973
▁lik	-8974
▁lou	-8975
▁mol	-8976
▁nur	-8977
▁oct	-8978
▁oxy	-8979
▁pha	-8980
▁pit	-8981
▁pow	-8982
▁sag	-8983
▁ske	-8984
▁tag	-8985
▁tim	-8986
▁tub	-8987
▁van	-8988
Harry	-8989
Haven	-8990
Never	-8991
Right	-8992
Sweet	-8993
There	-8994
abbed	-8995
actor	-8996
ained	-8997
anime	-8998
antha	-8999
arest	-9000
arker	-9001
atern	-9002
bable	-9003
caine	-9004
clock	-9005
comet	-9006
craft	-9007
cribe	-9008
ening	-9009
esame	-9010
goose	-9011
iches	-9012
igate	-9013
ilera	-9014
inois	-9015
inova	-9016
ipper	-9017
ocker	-9018
olson	-9019
ooray	-9020
ooses	-9021
ophob	-9022
orill	-9023
osaur	-9024
otton	-9025
paper	-9026
prise	-9027
recha	-9028
ribly	-9029
sycho	-9030
tered	-9031
three	-9032
ufact	-9033
uline	-9034
usted	-9035
wagon	-9036
warya	-9037
▁1960	-9038
▁1970	-9039
▁2004	-9040
▁Bash	-9041
▁Bass	-9042
▁Body	-9043
▁Book	-9044
▁Camp	-9045
▁Cook	-9046
▁Dale	-9047
▁Dare	-9048
▁Dash	-9049
▁Dill	-9050
▁Dirt	-9051
▁Dish	-9052
▁Door	-9053
▁Doug	-9054
▁Drag	-9055
▁Drew	-9056
▁Dust	-9057
▁EBay	-9058
▁Goku	-9059
▁Grim	-9060
▁Help	-9061
▁Inte	-9062
▁Iraq	-9063
▁Jazz	-9064
▁Lake	-9065
▁Lars	-9066
▁Main	-9067
▁Male	-9068
▁Meat	-9069
▁Mich	-9070
▁Nice	-9071
▁Owen	-9072
▁Pass	-9073
▁Phot	-9074
▁Roth	-9075
▁Rush	-9076
▁Sain	-9077
▁Sexy	-9078
▁Shot	-9079
▁Sway	-9080
▁Team	-9081
▁Toni	-9082
▁Tyra	-9083
▁Vide	-9084
▁Vill	-9085
▁acid	-9086
▁arch	-9087
▁arts	-9088
▁blan	-9089
▁buzz	-9090
▁cand	-9091
▁cane	-9092
▁caps	-9093
▁cats	-9094
▁cens	-9095
▁cour	-9096
▁cows	-9097
▁deny	-9098
▁edge	-9099
▁enam	-9100
▁ende	-9101
▁fees	-9102
▁gall	-9103
▁haha	-9104
▁hall	-9105
▁hint	-9106
▁lawn	-9107
▁mars	-9108
▁musc	-9109
▁nail	-9110
▁path	-9111
▁pawn	-9112
▁pigs	-9113
▁prev	-9114
▁prot	-9115
▁quar	-9116
▁remo	-9117
▁retr	-9118
▁rose	-9119
▁runs	-9120
▁sake	-9121
▁shit	-9122
▁skip	-9123
▁slut	-9124
▁soda	-9125
▁sons	-9126
▁sued	-9127
▁toss	-9128
▁unsu	-9129
▁vint	-9130
▁virt	-9131
▁weed	-9132
▁yard	-9133
Dreamy	-9134
acious	-9135
entric	-9136
ession	-9137
finity	-9138
iently	-9139
ighter	-9140
isdale	-9141
istols	-9142
oliday	-9143
ophone	-9144
orders	-9145
ormous	-9146
ortant	-9147
ouncer	-9148
porary	-9149
▁Agent	-9150
▁Alone	-9151
▁Becky	-9152
▁Bible	-9153
▁Bowie	-9154
▁Brave	-9155
▁Bring	-9156
▁Chong	-9157
▁Cliff	-9158
▁Creed	-9159
▁Doesn	-9160
▁Dolly	-9161
▁Doubt	-9162
▁Drake	-9163
▁Event	-9164
▁Freak	-9165
▁Fresh	-9166
▁Grail	-9167
▁Greek	-9168
▁Hands	-9169
▁Heath	-9170
▁Hurts	-9171
▁Janis	-9172
▁Kirst	-9173
▁Larry	-9174
▁Marie	-9175
▁Miles	-9176
▁Missy	-9177
▁Model	-9178
▁Moses	-9179
▁Point	-9180
▁Racer	-9181
▁Ralph	-9182
▁Rican	-9183
▁Sense	-9184
▁Shake	-9185
▁Shane	-9186
▁Short	-9187
▁Sixth	-9188
▁State	-9189
▁Stick	-9190
▁Storm	-9191
▁Teddy	-9192
▁Trish	-9193
▁Twain	-9194
▁Wendy	-9195
▁Wrest	-9196
▁alter	-9197
▁citiz	-9198
▁cliff	-9199
▁coach	-9200
▁cocon	-9201
▁contr	-9202
▁craft	-9203
▁crime	-9204
▁cruel	-9205
▁cuter	-9206
▁disgu	-9207
▁drove	-9208
▁forum	-9209
▁frame	-9210
▁goofy	-9211
▁goose	-9212
▁greet	-9213
▁guide	-9214
▁hates	-9215
▁holds	-9216
▁hopes	-9217
▁indic	-9218
▁lifet	-9219
▁maxim	-9220
▁minim	-9221
▁missp	-9222
▁nails	-9223
▁nicer	-9224
▁owned	-9225
▁param	-9226
▁pilot	-9227
▁plant	-9228
▁prank	-9229
▁rerun	-9230
▁resol	-9231
▁revol	-9232
▁salad	-9233
▁salsa	-9234
▁shiny	-9235
▁shops	-9236
▁solos	-9237
▁steak	-9238
▁stepp	-9239
▁straw	-9240
▁swall	-9241
▁teens	-9242
▁thick	-9243
▁venue	-9244
▁wager	-9245
▁wives	-9246
▁yells	-9247
arently	-9248
atuated	-9249
edingly	-9250
ficient	-9251
inating	-9252
pective	-9253
rageous	-9254
redited	-9255
ributes	-9256
station	-9257
ulating	-9258
visible	-9259
youtube	-9260
▁Almost	-9261
▁Anakin	-9262
▁Arthur	-9263
▁Avenue	-9264
▁Battle	-9265
▁Boogie	-9266
▁Brenna	-9267
▁Broken	-9268
▁Burger	-9269
▁Celine	-9270
▁Circus	-9271
▁Columb	-9272
▁Conner	-9273
▁Dallas	-9274
▁Donald	-9275
▁Except	-9276
▁Garden	-9277
▁Gentle	-9278
▁Hannah	-9279
▁Hitler	-9280
▁Hustle	-9281
▁Kagome	-9282
▁Lennon	-9283
▁Maggie	-9284
▁Matrix	-9285
▁Middle	-9286
▁Nathan	-9287
▁Nelson	-9288
▁Orange	-9289
▁Parker	-9290
▁Parton	-9291
▁Rhymes	-9292
▁Sailor	-9293
▁Singer	-9294
▁Sparxx	-9295
▁Sunset	-9296
▁Sydney	-9297
▁Triple	-9298
▁Vaness	-9299
▁Walker	-9300
▁Willis	-9301
▁affair	-9302
▁affect	-9303
▁assure	-9304
▁battle	-9305
▁brains	-9306
▁brands	-9307
▁burned	-9308
▁cancer	-9309
▁charts	-9310
▁cities	-9311
▁claims	-9312
▁compos	-9313
▁concur	-9314
▁contem	-9315
▁damage	-9316
▁degree	-9317
▁detail	-9318
▁drives	-9319
▁earned	-9320
▁encoun	-9321
▁errors	-9322
▁execut	-9323
▁explan	-9324
▁farmer	-9325
▁fiance	-9326
▁flight	-9327
▁ghetto	-9328
▁greedy	-9329
▁haired	-9330
▁hardly	-9331
▁hyster	-9332
▁income	-9333
▁intern	-9334
▁invite	-9335
▁jacket	-9336
▁lawyer	-9337
▁loathe	-9338
▁manage	-9339
▁melody	-9340
▁mental	-9341
▁oldies	-9342
▁pirate	-9343
▁poison	-9344
▁powers	-9345
▁purely	-9346
▁rights	-9347
▁rubber	-9348
▁settle	-9349
▁shrimp	-9350
▁smiles	-9351
▁solely	-9352
▁spaces	-9353
▁speaks	-9354
▁stereo	-9355
▁throat	-9356
▁turtle	-9357
▁wealth	-9358
▁weapon	-9359
▁weekly	-9360
▁wished	-9361
▁worthy	-9362
aduation	-9363
ronicles	-9364
▁Antonio	-9365
▁Beastie	-9366
▁Beckham	-9367
▁Between	-9368
▁Cameron	-9369
▁Chester	-9370
▁Clinton	-9371
▁Clooney	-9372
▁College	-9373
▁Collins	-9374
▁Detroit	-9375
▁Diamond	-9376
▁Factory	-9377
▁Gabriel	-9378
▁Georgia	-9379
▁Marissa	-9380
▁Mermaid	-9381
▁Omarion	-9382
▁Outkast	-9383
▁Pantera	-9384
▁Pistols	-9385
▁Russell	-9386
▁Special	-9387
▁Talking	-9388
▁Youtube	-9389
▁annoyed	-9390
▁anytime	-9391
▁aspects	-9392
▁assumed	-9393
▁bowling	-9394
▁burning	-9395
▁central	-9396
▁charges	-9397
▁colored	-9398
▁complex	-9399
▁conduct	-9400
▁confess	-9401
▁deleted	-9402
▁delight	-9403
▁easiest	-9404
▁edition	-9405
▁explore	-9406
▁goodbye	-9407
▁guessed	-9408
▁haircut	-9409
▁hopeful	-9410
▁imitate	-9411
▁implore	-9412
▁invited	-9413
▁karaoke	-9414
▁kitchen	-9415
▁lighter	-9416
▁matches	-9417
▁oranges	-9418
▁painted	-9419
▁parking	-9420
▁project	-9421
▁protect	-9422
▁resides	-9423
▁reunite	-9424
▁reverse	-9425
▁rolling	-9426
▁sequels	-9427
▁shorter	-9428
▁someday	-9429
▁spectac	-9430
▁student	-9431
▁theatre	-9432
▁twisted	-9433
▁useless	-9434
▁vintage	-9435
sequently	-9436
▁Aguilera	-9437
▁Brittany	-9438
▁Brittney	-9439
▁Complete	-9440
▁Explorer	-9441
▁Fantasia	-9442
▁Harrison	-9443
▁Hermione	-9444
▁Laughing	-9445
▁National	-9446
▁Stripper	-9447
▁Veronica	-9448
▁approach	-9449
▁arrogant	-9450
▁awaiting	-9451
▁clarinet	-9452
▁consists	-9453
▁constant	-9454
▁consumed	-9455
▁directed	-9456
▁discount	-9457
▁dreaming	-9458
▁educated	-9459
▁enamored	-9460
▁enormous	-9461
▁implants	-9462
▁improved	-9463
▁incident	-9464
▁indicate	-9465
▁manufact	-9466
▁murdered	-9467
▁overwhel	-9468
▁prepared	-9469
▁presence	-9470
▁progress	-9471
▁relative	-9472
▁unnecess	-9473
▁vacation	-9474
▁Basically	-9475
▁Boondocks	-9476
▁Boulevard	-9477
▁Capricorn	-9478
▁Favorites	-9479
▁Neverland	-9480
▁Orchestra	-9481
▁Reggaeton	-9482
▁Valentine	-9483
▁acquiring	-9484
▁addictive	-9485
▁advertise	-9486
▁announced	-9487
▁backstage	-9488
▁carefully	-9489
▁caucasian	-9490
▁celebrate	-9491
▁challenge	-9492
▁cigarette	-9493
▁comedians	-9494
▁companies	-9495
▁companion	-9496
▁computers	-9497
▁condition	-9498
▁consuming	-9499
▁countries	-9500
▁daughters	-9501
▁deserving	-9502
▁establish	-9503
▁exclaimed	-9504
▁extensive	-9505
▁fictional	-9506
▁financial	-9507
▁generally	-9508
▁genitalia	-9509
▁hairstyle	-9510
▁illegally	-9511
▁indicated	-9512
▁introduce	-9513
▁masculine	-9514
▁neighbors	-9515
▁pronounce	-9516
▁qualities	-9517
▁reception	-9518
▁requested	-9519
▁ringtones	-9520
▁slightest	-9521
▁stereotyp	-9522
▁unsuccess	-9523
▁Apocalypse	-9524
▁Apparently	-9525
▁Australian	-9526
▁Chamillion	-9527
▁Redemption	-9528
▁assumption	-9529
▁attributes	-9530
▁believable	-9531
▁depressing	-9532
▁electronic	-9533
▁eliminated	-9534
▁enthusiast	-9535
▁infatuated	-9536
▁intriguing	-9537
▁originated	-9538
▁pertaining	-9539
▁recognized	-9540
▁reputation	-9541
▁unexpected	-9542
▁Destination	-9543
▁Nickelodeon	-9544
▁Underground	-9545
▁Witherspoon	-9546
▁anniversary	-9547
▁appointment	-9548
▁concentrate	-9549
▁emotionally	-9550
▁exceedingly	-9551
▁experiences	-9552
▁perspective	-9553
▁predictable	-9554
▁preferences	-9555
▁underground	-9556
▁consequences	-9557
▁refrigerator	-9558
▁subscription	-9559
▁extraordinary	-9560
'!	-9561
.3	-9562
13	-9563
45	-9564
88	-9565
98	-9566
AP	-9567
Ar	-9568
BA	-9569
Bo	-9570
ED	-9571
Fl	-9572
GM	-9573
Gi	-9574
IL	-9575
Le	-9576
MX	-9577
NC	-9578
OR	-9579
RE	-9580
Re	-9581
Sk	-9582
Tr	-9583
gl	-9584
mo	-9585
po	-9586
ti	-9587
▁@	-9588
199	-9589
Ain	-9590
Bob	-9591
Bri	-9592
But	-9593
ISS	-9594
Mom	-9595
New	-9596
Red	-9597
Rem	-9598
Sil	-9599
Wow	-9600
add	-9601
ahu	-9602
bal	-9603
cho	-9604
chy	-9605
cot	-9606
cup	-9607
dam	-9608
ede	-9609
ema	-9610
ems	-9611
etc	-9612
fox	-9613
gos	-9614
haw	-9615
his	-9616
hor	-9617
iat	-9618
ibe	-9619
iem	-9620
ils	-9621
jud	-9622
kia	-9623
kyo	-9624
lai	-9625
lam	-9626
lon	-9627
low	-9628
lyn	-9629
nib	-9630
now	-9631
oco	-9632
ogy	-9633
rem	-9634
rot	-9635
rus	-9636
squ	-9637
tan	-9638
tha	-9639
two	-9640
uld	-9641
zel	-9642
zes	-9643
zzy	-9644
▁#1	-9645
▁26	-9646
▁33	-9647
▁38	-9648
▁42	-9649
▁69	-9650
▁AL	-9651
▁Ah	-9652
▁BM	-9653
▁DD	-9654
▁EM	-9655
▁EV	-9656
▁FO	-9657
▁Fa	-9658
▁Ga	-9659
▁Gi	-9660
▁Ko	-9661
▁Ms	-9662
▁Ow	-9663
▁Rh	-9664
▁Zo	-9665
▁ej	-9666
▁ow	-9667
000.	-9668
Home	-9669
Just	-9670
King	-9671
Lean	-9672
Lost	-9673
Move	-9674
Tell	-9675
Unit	-9676
ablo	-9677
acey	-9678
adle	-9679
amma	-9680
ansp	-9681
arez	-9682
assy	-9683
aton	-9684
book	-9685
bull	-9686
bury	-9687
bute	-9688
care	-9689
cell	-9690
cery	-9691
corn	-9692
esus	-9693
find	-9694
ggle	-9695
home	-9696
ials	-9697
idol	-9698
impy	-9699
inct	-9700
lake	-9701
lers	-9702
lied	-9703
mist	-9704
mons	-9705
ooky	-9706
ooth	-9707
ophy	-9708
orts	-9709
otes	-9710
reng	-9711
rier	-9712
seek	-9713
sney	-9714
uffs	-9715
vest	-9716
your	-9717
zing	-9718
znor	-9719
▁120	-9720
▁16.	-9721
▁194	-9722
▁21,	-9723
▁300	-9724
▁500	-9725
▁666	-9726
▁ATL	-9727
▁Ari	-9728
▁Aut	-9729
▁Bal	-9730
▁Bee	-9731
▁CNN	-9732
▁Cre	-9733
▁DVR	-9734
▁Dix	-9735
▁Dom	-9736
▁End	-9737
▁FYE	-9738
▁Fez	-9739
▁Gin	-9740
▁Haz	-9741
▁Hed	-9742
▁Kik	-9743
▁Lar	-9744
▁Lep	-9745
▁Mir	-9746
▁Mut	-9747
▁Sep	-9748
▁Sig	-9749
▁Spl	-9750
▁TBS	-9751
▁TLC	-9752
▁VCR	-9753
▁amp	-9754
▁ark	-9755
▁ast	-9756
▁bes	-9757
▁dee	-9758
▁dub	-9759
▁duo	-9760
▁fed	-9761
▁flu	-9762
▁fox	-9763
▁gif	-9764
▁gro	-9765
▁hun	-9766
▁muc	-9767
▁nom	-9768
▁org	-9769
▁pin	-9770
▁raw	-9771
▁reb	-9772
▁scr	-9773
▁sen	-9774
▁sho	-9775
▁ska	-9776
▁swe	-9777
▁ted	-9778
▁ton	-9779
▁vag	-9780
▁wed	-9781
▁zip	-9782
Angel	-9783
Black	-9784
Bride	-9785
Brien	-9786
Happy	-9787
Money	-9788
Since	-9789
South	-9790
Super	-9791
adise	-9792
agged	-9793
agine	-9794
ampon	-9795
angle	-9796
aning	-9797
arded	-9798
aries	-9799
asier	-9800
athom	-9801
berty	-9802
blood	-9803
brevi	-9804
ellar	-9805
eller	-9806
ensen	-9807
ented	-9808
forts	-9809
going	-9810
grats	-9811
heads	-9812
hound	-9813
ibles	-9814
icity	-9815
iffer	-9816
imesh	-9817
ingle	-9818
irley	-9819
ishes	-9820
issed	-9821
ooked	-9822
orses	-9823
owned	-9824
panic	-9825
pping	-9826
ranos	-9827
reens	-9828
regon	-9829
slist	-9830
spond	-9831
taker	-9832
uffle	-9833
ugged	-9834
usive	-9835
veled	-9836
worth	-9837
▁$200	-9838
▁100%	-9839
▁182,	-9840
▁3000	-9841
▁911.	-9842
▁Aish	-9843
▁Alas	-9844
▁Arch	-9845
▁Aunt	-9846
▁Bach	-9847
▁Barb	-9848
▁Beet	-9849
▁Butt	-9850
▁Cake	-9851
▁Cass	-9852
▁Chap	-9853
▁Clar	-9854
▁Copy	-9855
▁Corn	-9856
▁Cost	-9857
▁Cult	-9858
▁Dawn	-9859
▁Dian	-9860
▁Dire	-9861
▁Dunn	-9862
▁Flip	-9863
▁Frou	-9864
▁Funn	-9865
▁Gall	-9866
▁Gina	-9867
▁Goth	-9868
▁Guys	-9869
▁Heat	-9870
▁Hoob	-9871
▁Hung	-9872
▁KISS	-9873
▁Kare	-9874
▁Kool	-9875
▁Lang	-9876
▁Leos	-9877
▁Lets	-9878
▁Lois	-9879
▁Lynn	-9880
▁Mach	-9881
▁Mack	-9882
▁Macy	-9883
▁Mall	-9884
▁Marc	-9885
▁Noah	-9886
▁Nort	-9887
▁Nyak	-9888
▁Penn	-9889
▁Pill	-9890
▁Poop	-9891
▁Pulp	-9892
▁Rice	-9893
▁Slow	-9894
▁Suri	-9895
▁Thor	-9896
▁Tomb	-9897
▁Upon	-9898
▁Valo	-9899
▁Wake	-9900
▁Whis	-9901
▁Whoa	-9902
▁Wigg	-9903
▁Zack	-9904
▁beep	-9905
▁bike	-9906
▁bomb	-9907
▁bush	-9908
▁chin	-9909
▁cock	-9910
▁crew	-9911
▁dish	-9912
▁dism	-9913
▁doub	-9914
▁dust	-9915
▁dwar	-9916
▁esca	-9917
▁firm	-9918
▁flip	-9919
▁foul	-9920
▁fulf	-9921
▁golf	-9922
▁heav	-9923
▁held	-9924
▁hood	-9925
▁hose	-9926
▁lied	-9927
▁lint	-9928
▁liqu	-9929
▁load	-9930
▁lord	-9931
▁mate	-9932
▁mile	-9933
▁mini	-9934
▁mixt	-9935
▁muff	-9936
▁nano	-9937
▁narr	-9938
▁nipp	-9939
▁odds	-9940
▁plac	-9941
▁poet	-9942
▁priv	-9943
▁reph	-9944
▁sadd	-9945
▁seed	-9946
▁skit	-9947
▁stim	-9948
▁suff	-9949
▁tail	-9950
▁till	-9951
▁tiny	-9952
▁tips	-9953
▁tons	-9954
▁toys	-9955
▁unac	-9956
▁uned	-9957
▁unpl	-9958
▁wash	-9959
▁wing	-9960
▁wont	-9961
Daniel	-9962
Little	-9963
Please	-9964
actice	-9965
arents	-9966
atable	-9967
athize	-9968
atient	-9969
caster	-9970
chance	-9971
elling	-9972
estyle	-9973
ifully	-9974
ifying	-9975
itable	-9976
ittles	-9977
jeeves	-9978
lasses	-9979
ocking	-9980
ources	-9981
ppelle	-9982
ration	-9983
rehend	-9984
sexual	-9985
string	-9986
ucking	-9987
ulsive	-9988
wshank	-9989
▁1960'	-9990
▁Andre	-9991
▁Bauer	-9992
▁Below	-9993
▁Benny	-9994
▁Breat	-9995
▁Bride	-9996
▁Bynes	-9997
▁Carly	-9998
▁Chand	-9999
▁Clash	-10000
▁Colin	-10001
▁Cosby	-10002
▁Cream	-10003
▁Cross	-10004
▁Donna	-10005
▁Dopey	-10006
▁Dozen	-10007
▁Evans	-10008
▁Films	-10009
▁Flava	-10010
▁Gimme	-10011
▁Goofy	-10012
▁Haley	-10013
▁Haven	-10014
▁Heads	-10015
▁Hitch	-10016
▁Inter	-10017
▁Jenny	-10018
▁Julie	-10019
▁Laden	-10020
▁Lemon	-10021
▁Lives	-10022
▁Major	-10023
▁Mamma	-10024
▁Manga	-10025
▁Mayer	-10026
▁Nicky	-10027
▁Nokia	-10028
▁Perry	-10029
▁Petty	-10030
▁Pitts	-10031
▁Price	-10032
▁Rocks	-10033
▁Saved	-10034
▁Slide	-10035
▁Still	-10036
▁Store	-10037
▁Strat	-10038
▁Susan	-10039
▁Tamil	-10040
▁Topic	-10041
▁Trump	-10042
▁Vaugh	-10043
▁Ville	-10044
▁Wings	-10045
▁Witch	-10046
▁Woody	-10047
▁apple	-10048
▁arous	-10049
▁awake	-10050
▁bills	-10051
▁brush	-10052
▁built	-10053
▁bully	-10054
▁cases	-10055
▁champ	-10056
▁chase	-10057
▁coast	-10058
▁depth	-10059
▁facts	-10060
▁fails	-10061
▁falls	-10062
▁fault	-10063
▁folks	-10064
▁frank	-10065
▁fries	-10066
▁giant	-10067
▁goals	-10068
▁grill	-10069
▁harsh	-10070
▁heels	-10071
▁holes	-10072
▁hurry	-10073
▁incre	-10074
▁leads	-10075
▁licks	-10076
▁limit	-10077
▁lists	-10078
▁miles	-10079
▁navig	-10080
▁optim	-10081
▁overd	-10082
▁parks	-10083
▁pitch	-10084
▁plain	-10085
▁poker	-10086
▁porch	-10087
▁prett	-10088
▁purse	-10089
▁pussy	-10090
▁races	-10091
▁repet	-10092
▁rings	-10093
▁rough	-10094
▁sadly	-10095
▁scorp	-10096
▁screw	-10097
▁seats	-10098
▁serve	-10099
▁shark	-10100
▁shine	-10101
▁skill	-10102
▁suits	-10103
▁surge	-10104
▁sweat	-10105
▁tempt	-10106
▁thats	-10107
▁trial	-10108
▁tries	-10109
▁tuned	-10110
▁typed	-10111
▁urban	-10112
▁utter	-10113
▁walls	-10114
Torrent	-10115
busters	-10116
certain	-10117
ensical	-10118
enstein	-10119
forfree	-10120
hapsody	-10121
hotmail	-10122
ounding	-10123
rechaun	-10124
rentice	-10125
ricated	-10126
ruction	-10127
ushroom	-10128
▁Adkins	-10129
▁Arabic	-10130
▁Barker	-10131
▁Beavis	-10132
▁Beyond	-10133
▁Blaine	-10134
▁Bowwow	-10135
▁Bullet	-10136
▁Butter	-10137
▁Carrey	-10138
▁Carvey	-10139
▁Choice	-10140
▁Chorus	-10141
▁Cooper	-10142
▁Doctor	-10143
▁Fergie	-10144
▁Future	-10145
▁Gabrie	-10146
▁Giants	-10147
▁Hudson	-10148
▁Jersey	-10149
▁Kimber	-10150
▁Lovers	-10151
▁Making	-10152
▁McPhee	-10153
▁Menace	-10154
▁Native	-10155
▁Oregon	-10156
▁Psycho	-10157
▁Public	-10158
▁Reggae	-10159
▁Reznor	-10160
▁Rogers	-10161
▁Rubber	-10162
▁Sevent	-10163
▁Sheryl	-10164
▁Sirius	-10165
▁Twista	-10166
▁Valley	-10167
▁Volume	-10168
▁Warren	-10169
▁Wizard	-10170
▁Wouldn	-10171
▁advent	-10172
▁agreed	-10173
▁altern	-10174
▁attain	-10175
▁cheats	-10176
▁classy	-10177
▁conven	-10178
▁cookie	-10179
▁covers	-10180
▁discou	-10181
▁ensure	-10182
▁entity	-10183
▁explos	-10184
▁extend	-10185
▁facial	-10186
▁fathom	-10187
▁garage	-10188
▁headed	-10189
▁heroes	-10190
▁heroin	-10191
▁hidden	-10192
▁horses	-10193
▁landed	-10194
▁lovers	-10195
▁mellow	-10196
▁nation	-10197
▁peanut	-10198
▁perish	-10199
▁powder	-10200
▁priest	-10201
▁provoc	-10202
▁retire	-10203
▁roller	-10204
▁saving	-10205
▁scares	-10206
▁scroll	-10207
▁served	-10208
▁shadow	-10209
▁slower	-10210
▁slowly	-10211
▁soccer	-10212
▁strike	-10213
▁struck	-10214
▁stunts	-10215
▁submit	-10216
▁supply	-10217
▁tampon	-10218
▁tricky	-10219
▁trivia	-10220
▁uninte	-10221
▁unsett	-10222
▁violin	-10223
▁wicked	-10224
ceptable	-10225
function	-10226
iversity	-10227
thermore	-10228
▁Beckins	-10229
▁Bennett	-10230
▁Chesney	-10231
▁Classic	-10232
▁Conduct	-10233
▁Edition	-10234
▁Falling	-10235
▁Farrell	-10236
▁Imagine	-10237
▁Indiana	-10238
▁Jeannie	-10239
▁Kareena	-10240
▁Lindsey	-10241
▁Lorelai	-10242
▁Memphis	-10243
▁Nichole	-10244
▁Ozzfest	-10245
▁Perfect	-10246
▁Phillip	-10247
▁Playboy	-10248
▁Pumpkin	-10249
▁Puppets	-10250
▁Rowling	-10251
▁Scarlet	-10252
▁Seasons	-10253
▁Service	-10254
▁Sharkey	-10255
▁Shirley	-10256
▁Sublime	-10257
▁Tisdale	-10258
▁Vanessa	-10259
▁Ventura	-10260
▁Village	-10261
▁Whoever	-10262
▁abbrevi	-10263
▁applies	-10264
▁artwork	-10265
▁balloon	-10266
▁bananas	-10267
▁bottles	-10268
▁carried	-10269
▁caution	-10270
▁cleaner	-10271
▁cocaine	-10272
▁constru	-10273
▁consult	-10274
▁counted	-10275
▁cousins	-10276
▁cowboys	-10277
▁creates	-10278
▁dancers	-10279
▁dealing	-10280
▁decides	-10281
▁doctors	-10282
▁dropped	-10283
▁efforts	-10284
▁favored	-10285
▁grocery	-10286
▁healthy	-10287
▁helping	-10288
▁hideous	-10289
▁hippies	-10290
▁holiday	-10291
▁honesty	-10292
▁intense	-10293
▁interfe	-10294
▁labeled	-10295
▁lengthy	-10296
▁martial	-10297
▁moniker	-10298
▁monkeys	-10299
▁mystery	-10300
▁objects	-10301
▁package	-10302
▁payment	-10303
▁planned	-10304
▁popcorn	-10305
▁posting	-10306
▁preform	-10307
▁pushing	-10308
▁raining	-10309
▁reprodu	-10310
▁rockers	-10311
▁scratch	-10312
▁session	-10313
▁sibling	-10314
▁sincere	-10315
▁skating	-10316
▁specify	-10317
▁spyware	-10318
▁stating	-10319
▁sticker	-10320
▁sucking	-10321
▁surname	-10322
▁teasing	-10323
▁touched	-10324
▁treated	-10325
▁victory	-10326
▁wasting	-10327
▁weapons	-10328
▁webpage	-10329
▁workers	-10330
Brokeback	-10331
ification	-10332
ketmaster	-10333
ventional	-10334
▁Astrolog	-10335
▁Bitcomet	-10336
▁Courtney	-10337
▁Eastwood	-10338
▁Electric	-10339
▁Exorcism	-10340
▁Franklin	-10341
▁Greatest	-10342
▁Illinois	-10343
▁LimeWire	-10344
▁McDreamy	-10345
▁Michigan	-10346
▁Princess	-10347
▁Secondly	-10348
▁Sopranos	-10349
▁Southern	-10350
▁Springer	-10351
▁Sunshine	-10352
▁Virginia	-10353
▁Whenever	-10354
▁accounts	-10355
▁acquaint	-10356
▁argument	-10357
▁athletic	-10358
▁attached	-10359
▁cautious	-10360
▁clicking	-10361
▁collabor	-10362
▁composed	-10363
▁critical	-10364
▁crossing	-10365
▁declined	-10366
▁distract	-10367
▁downtown	-10368
▁eighties	-10369
▁electron	-10370
▁elements	-10371
▁engaging	-10372
▁ensemble	-10373
▁explains	-10374
▁fondness	-10375
▁friendly	-10376
▁headache	-10377
▁immature	-10378
▁inquired	-10379
▁interact	-10380
▁lifetime	-10381
▁maintain	-10382
▁offended	-10383
▁ordinary	-10384
▁outdated	-10385
▁pressure	-10386
▁princess	-10387
▁provider	-10388
▁quarters	-10389
▁recorder	-10390
▁register	-10391
▁rejected	-10392
▁reliable	-10393
▁remained	-10394
▁reminded	-10395
▁restroom	-10396
▁retrieve	-10397
▁sandwich	-10398
▁security	-10399
▁separate	-10400
▁sequence	-10401
▁shoulder	-10402
▁similiar	-10403
▁singular	-10404
▁stressed	-10405
▁stronger	-10406
▁superher	-10407
▁suspense	-10408
▁teachers	-10409
▁throwing	-10410
▁urinated	-10411
▁youngest	-10412
letssingit	-10413
▁Fantastic	-10414
▁Franchise	-10415
▁Hilarious	-10416
▁Nashville	-10417
▁Nicholson	-10418
▁Nightwish	-10419
▁Operation	-10420
▁Seriously	-10421
▁Somewhere	-10422
▁Wrestling	-10423
▁addicting	-10424
▁admission	-10425
▁agreeable	-10426
▁associate	-10427
▁astrology	-10428
▁believing	-10429
▁bookstore	-10430
▁destroyed	-10431
▁detective	-10432
▁discussed	-10433
▁disgusted	-10434
▁displayed	-10435
▁favorable	-10436
▁genuinely	-10437
▁initially	-10438
▁interpret	-10439
▁invisible	-10440
▁irritates	-10441
▁memorable	-10442
▁metallica	-10443
▁multitude	-10444
▁occasions	-10445
▁perverted	-10446
▁precisely	-10447
▁predicted	-10448
▁presented	-10449
▁realistic	-10450
▁religious	-10451
▁returning	-10452
▁substance	-10453
▁thousands	-10454
▁unsightly	-10455
▁utilizing	-10456
▁wallpaper	-10457
▁Braveheart	-10458
▁Chronicles	-10459
▁Eventually	-10460
▁Underworld	-10461
▁accurately	-10462
▁applicable	-10463
▁attraction	-10464
▁automobile	-10465
▁categories	-10466
▁comprehend	-10467
▁conclusion	-10468
▁correspond	-10469
▁department	-10470
▁describing	-10471
▁determined	-10472
▁employment	-10473
▁friendship	-10474
▁frustrated	-10475
▁guitarists	-10476
▁mysterious	-10477
▁outrageous	-10478
▁proficient	-10479
▁pronounced	-10480
▁statements	-10481
▁substances	-10482
▁worthwhile	-10483
▁Considering	-10484
▁Interesting	-10485
▁Sagittarius	-10486
▁communicate	-10487
▁contestants	-10488
▁educational	-10489
▁grandfather	-10490
▁homosexuals	-10491
▁investigate	-10492
▁nonsensical	-10493
▁prostitutes	-10494
▁reminiscent	-10495
▁researching	-10496
▁spectacular	-10497
▁temperature	-10498
▁Frankenstein	-10499
▁embarrassing	-10500
▁questionable	-10501
▁ticketmaster	-10502
▁unacceptable	-10503
▁unbelievable	-10504
▁unsuccessful	-10505
▁communication	-10506
▁disrespectful	-10507
▁personalities	-10508
▁professionals	-10509
▁advertisements	-10510
▁Congratulations	-10511
!'	-10512
";	-10513
09	-10514
28	-10515
32	-10516
3@	-10517
42	-10518
6)	-10519
CH	-10520
Dr	-10521
Is	-10522
LU	-10523
Ne	-10524
To	-10525
Ya	-10526
fa	-10527
hi	-10528
hm	-10529
ht	-10530
lk	-10531
ns	-10532
oi	-10533
sa	-10534
▁!	-10535
▁£	-10536
800	-10537
And	-10538
Bar	-10539
Bow	-10540
Com	-10541
EST	-10542
God	-10543
Hot	-10544
ING	-10545
Mon	-10546
Nob	-10547
ONE	-10548
Pop	-10549
Saw	-10550
Sur	-10551
Too	-10552
abi	-10553
acr	-10554
ali	-10555
aol	-10556
aps	-10557
arz	-10558
ava	-10559
bee	-10560
bop	-10561
car	-10562
cat	-10563
cst	-10564
cue	-10565
dee	-10566
dit	-10567
dvd	-10568
eks	-10569
err	-10570
erv	-10571
fon	-10572
ggs	-10573
hab	-10574
hru	-10575
idi	-10576
ivo	-10577
lar	-10578
lay	-10579
nip	-10580
nis	-10581
nox	-10582
ocr	-10583
ola	-10584
ras	-10585
sun	-10586
tat	-10587
tch	-10588
top	-10589
ugu	-10590
umm	-10591
vir	-10592
yla	-10593
yps	-10594
zie	-10595
▁"5	-10596
▁#4	-10597
▁1/	-10598
▁31	-10599
▁39	-10600
▁47	-10601
▁55	-10602
▁57	-10603
▁7,	-10604
▁AB	-10605
▁DO	-10606
▁Ep	-10607
▁FX	-10608
▁Fi	-10609
▁GT	-10610
▁HE	-10611
▁IN	-10612
▁JJ	-10613
▁Kl	-10614
▁Ku	-10615
▁MX	-10616
▁NC	-10617
▁OF	-10618
▁PG	-10619
▁SU	-10620
▁Sr	-10621
▁Ve	-10622
▁cy	-10623
▁si	-10624
▁vo	-10625
▁wa	-10626
9.99	-10627
Bang	-10628
Dark	-10629
Days	-10630
Down	-10631
Fire	-10632
Hips	-10633
Jack	-10634
Kiss	-10635
Oper	-10636
Over	-10637
Pain	-10638
RAGM	-10639
Stay	-10640
Turn	-10641
agle	-10642
amen	-10643
ania	-10644
anti	-10645
arre	-10646
asks	-10647
atre	-10648
ayed	-10649
bies	-10650
bill	-10651
blog	-10652
boro	-10653
bowl	-10654
burn	-10655
cake	-10656
cale	-10657
cats	-10658
cker	-10659
clip	-10660
cons	-10661
cued	-10662
cuss	-10663
digy	-10664
eras	-10665
esse	-10666
etta	-10667
gger	-10668
hake	-10669
hold	-10670
hoom	-10671
icem	-10672
iddy	-10673
iden	-10674
ighs	-10675
imps	-10676
inal	-10677
indi	-10678
iner	-10679
inst	-10680
inum	-10681
iper	-10682
irky	-10683
issy	-10684
izon	-10685
junk	-10686
maid	-10687
mill	-10688
mpoo	-10689
odge	-10690
ogan	-10691
okes	-10692
olic	-10693
onym	-10694
ooee	-10695
ooty	-10696
orns	-10697
oted	-10698
othy	-10699
oton	-10700
ouni	-10701
ousy	-10702
plan	-10703
plif	-10704
ploo	-10705
port	-10706
pric	-10707
pson	-10708
ptop	-10709
quin	-10710
rapy	-10711
regn	-10712
rera	-10713
resh	-10714
reyu	-10715
sion	-10716
that	-10717
tras	-10718
uals	-10719
uire	-10720
umar	-10721
umes	-10722
unit	-10723
ural	-10724
urer	-10725
vine	-10726
vous	-10727
with	-10728
word	-10729
zard	-10730
▁$5.	-10731
▁$50	-10732
▁101	-10733
▁17.	-10734
▁20,	-10735
▁24.	-10736
▁27,	-10737
▁902	-10738
▁911	-10739
▁98.	-10740
▁99.	-10741
▁AND	-10742
▁Ack	-10743
▁Ali	-10744
▁Bac	-10745
▁Boi	-10746
▁Bos	-10747
▁Bug	-10748
▁Cla	-10749
▁Cub	-10750
▁DaV	-10751
▁Daw	-10752
▁Deb	-10753
▁Dep	-10754
▁Dim	-10755
▁Fel	-10756
▁Fle	-10757
▁GNR	-10758
▁Hut	-10759
▁Job	-10760
▁Jod	-10761
▁Jop	-10762
▁Kap	-10763
▁Kin	-10764
▁Kry	-10765
▁LOT	-10766
▁Leg	-10767
▁Miy	-10768
▁Naz	-10769
▁Ner	-10770
▁Oak	-10771
▁Odd	-10772
▁Own	-10773
▁Pam	-10774
▁Pen	-10775
▁Ple	-10776
▁Pos	-10777
▁Rai	-10778
▁Ran	-10779
▁Raw	-10780
▁Rox	-10781
▁Sav	-10782
▁Spy	-10783
▁Sty	-10784
▁Sud	-10785
▁Sup	-10786
▁Tes	-10787
▁Tic	-10788
▁Tow	-10789
▁Tro	-10790
▁Tun	-10791
▁UPN	-10792
▁Uma	-10793
▁Vai	-10794
▁Ved	-10795
▁Vit	-10796
▁Wax	-10797
▁Zim	-10798
▁abc	-10799
▁alt	-10800
▁aol	-10801
▁bay	-10802
▁bom	-10803
▁bop	-10804
▁bul	-10805
▁bun	-10806
▁cds	-10807
▁dot	-10808
▁ecc	-10809
▁fet	-10810
▁flo	-10811
▁gee	-10812
▁glo	-10813
▁gra	-10814
▁gru	-10815
▁hoc	-10816
▁ine	-10817
▁jam	-10818
▁lam	-10819
▁mac	-10820
▁nar	-10821
▁nep	-10822
▁poo	-10823
▁raz	-10824
▁ren	-10825
▁sax	-10826
▁sed	-10827
▁sou	-10828
▁tel	-10829
▁tip	-10830
▁une	-10831
▁unl	-10832
▁unw	-10833
▁url	-10834
▁ven	-10835
▁vol	-10836
▁wid	-10837
Crash	-10838
Files	-10839
Honey	-10840
Point	-10841
White	-10842
Yahoo	-10843
acity	-10844
alled	-10845
anoid	-10846
ansas	-10847
ardar	-10848
armed	-10849
ascar	-10850
ashes	-10851
asmus	-10852
atoes	-10853
avory	-10854
brush	-10855
bumps	-10856
click	-10857
conom	-10858
count	-10859
cript	-10860
drive	-10861
early	-10862
elfth	-10863
eling	-10864
ellas	-10865
entin	-10866
eries	-10867
freak	-10868
hanti	-10869
icted	-10870
ifice	-10871
igger	-10872
ighed	-10873
ighty	-10874
igion	-10875
ilogy	-10876
ilton	-10877
imple	-10878
inent	-10879
inity	-10880
inkie	-10881
irmed	-10882
isher	-10883
itage	-10884
itary	-10885
itter	-10886
ivals	-10887
izzie	-10888
jamin	-10889
leive	-10890
leton	-10891
lings	-10892
natur	-10893
odile	-10894
ollow	-10895
onent	-10896
orpse	-10897
ortal	-10898
oulin	-10899
radio	-10900
rates	-10901
retch	-10902
sword	-10903
ulent	-10904
umped	-10905
ureus	-10906
video	-10907
water	-10908
works	-10909
▁****	-10910
▁1978	-10911
▁1997	-10912
▁Aime	-10913
▁Anne	-10914
▁Arms	-10915
▁Army	-10916
▁Aven	-10917
▁Ayla	-10918
▁Beep	-10919
▁Boat	-10920
▁Bobo	-10921
▁Boom	-10922
▁Born	-10923
▁Bott	-10924
▁Buff	-10925
▁Burb	-10926
▁Burn	-10927
▁Buzz	-10928
▁Cafe	-10929
▁Cand	-10930
▁Cars	-10931
▁Cath	-10932
▁Conn	-10933
▁Crew	-10934
▁Cris	-10935
▁Cure	-10936
▁Dang	-10937
▁Diaz	-10938
▁Dude	-10939
▁EVER	-10940
▁Eddy	-10941
▁Fest	-10942
▁Film	-10943
▁Foot	-10944
▁Fran	-10945
▁Fray	-10946
▁Frog	-10947
▁Gaye	-10948
▁Grab	-10949
▁Gray	-10950
▁Gret	-10951
▁Hugh	-10952
▁Hunt	-10953
▁Hyde	-10954
▁Incl	-10955
▁Ives	-10956
▁Jail	-10957
▁Jama	-10958
▁Jill	-10959
▁JoJo	-10960
▁Jude	-10961
▁Judy	-10962
▁Lamb	-10963
▁Late	-10964
▁Lead	-10965
▁Lite	-10966
▁Lock	-10967
▁Mail	-10968
▁Memo	-10969
▁Mist	-10970
▁Monk	-10971
▁Much	-10972
▁Murd	-10973
▁Nero	-10974
▁Neyo	-10975
▁Nyng	-10976
▁Pain	-10977
▁Pall	-10978
▁Phys	-10979
▁Pops	-10980
▁Race	-10981
▁Ramm	-10982
▁Rene	-10983
▁Rise	-10984
▁Seal	-10985
▁Sera	-10986
▁Sign	-10987
▁Skin	-10988
▁Soft	-10989
▁Sold	-10990
▁Spro	-10991
▁Stry	-10992
▁Sylv	-10993
▁Them	-10994
▁Thus	-10995
▁Tiff	-10996
▁Todd	-10997
▁Toys	-10998
▁Trey	-10999
▁Ugly	-11000
▁Utah	-11001
▁Wife	-11002
▁adam	-11003
▁appe	-11004
▁aunt	-11005
▁beef	-11006
▁blew	-11007
▁buff	-11008
▁calc	-11009
▁cere	-11010
▁chef	-11011
▁cong	-11012
▁cord	-11013
▁coun	-11014
▁craz	-11015
▁cult	-11016
▁cure	-11017
▁darn	-11018
▁deli	-11019
▁dent	-11020
▁dess	-11021
▁dict	-11022
▁edit	-11023
▁fate	-11024
▁flow	-11025
▁frag	-11026
▁gate	-11027
▁gaze	-11028
▁gest	-11029
▁goat	-11030
▁grab	-11031
▁grat	-11032
▁grey	-11033
▁kidn	-11034
▁lamb	-11035
▁lean	-11036
▁mask	-11037
▁meas	-11038
▁mole	-11039
▁mute	-11040
▁odor	-11041
▁owns	-11042
▁pets	-11043
▁pier	-11044
▁poly	-11045
▁pour	-11046
▁pupp	-11047
▁raid	-11048
▁rare	-11049
▁rear	-11050
▁rect	-11051
▁ribs	-11052
▁rice	-11053
▁sail	-11054
▁salt	-11055
▁sarc	-11056
▁scan	-11057
▁scen	-11058
▁slot	-11059
▁spit	-11060
▁synd	-11061
▁tact	-11062
▁toes	-11063
▁tube	-11064
▁unst	-11065
▁vacu	-11066
▁wedd	-11067
▁wipe	-11068
▁wrap	-11069
Nobody	-11070
Prison	-11071
Smells	-11072
airway	-11073
arious	-11074
astank	-11075
astard	-11076
asters	-11077
encies	-11078
eopard	-11079
ffered	-11080
icycle	-11081
ifting	-11082
ipment	-11083
ivated	-11084
izarre	-11085
keting	-11086
kshake	-11087
lative	-11088
leback	-11089
lights	-11090
minded	-11091
normal	-11092
ombies	-11093
omenal	-11094
ophile	-11095
ortion	-11096
osters	-11097
penter	-11098
priced	-11099
ptions	-11100
regard	-11101
ternal	-11102
ucated	-11103
umably	-11104
umbled	-11105
urouni	-11106
veland	-11107
venile	-11108
▁1988.	-11109
▁2005.	-11110
▁Alche	-11111
▁Amber	-11112
▁Angie	-11113
▁Audio	-11114
▁Basic	-11115
▁Belle	-11116
▁Betty	-11117
▁Blind	-11118
▁Brady	-11119
▁Brain	-11120
▁Brick	-11121
▁Cable	-11122
▁Carry	-11123
▁Catch	-11124
▁Chant	-11125
▁Coast	-11126
▁Color	-11127
▁Creep	-11128
▁Daffy	-11129
▁Daily	-11130
▁Danny	-11131
▁Dates	-11132
▁Davis	-11133
▁Denny	-11134
▁Diana	-11135
▁Dukes	-11136
▁Dying	-11137
▁Emule	-11138
▁Fifty	-11139
▁Filth	-11140
▁Floor	-11141
▁Glass	-11142
▁Goody	-11143
▁Gross	-11144
▁Helen	-11145
▁Hoops	-11146
▁Howie	-11147
▁Johan	-11148
▁Keira	-11149
▁Kings	-11150
▁Kumar	-11151
▁Latif	-11152
▁Laure	-11153
▁Libby	-11154
▁Linda	-11155
▁Loved	-11156
▁Makes	-11157
▁Mario	-11158
▁Match	-11159
▁Mercy	-11160
▁Molly	-11161
▁Mulan	-11162
▁Mummy	-11163
▁Nancy	-11164
▁Nikki	-11165
▁Ninja	-11166
▁Owens	-11167
▁Refer	-11168
▁Rocko	-11169
▁Rosie	-11170
▁Screw	-11171
▁Shows	-11172
▁Smack	-11173
▁Smoke	-11174
▁Stuff	-11175
▁Susie	-11176
▁Swing	-11177
▁Tales	-11178
▁Telet	-11179
▁Tower	-11180
▁Trent	-11181
▁Truth	-11182
▁Until	-11183
▁Waits	-11184
▁Worst	-11185
▁Wyatt	-11186
▁adapt	-11187
▁alarm	-11188
▁alley	-11189
▁aloud	-11190
▁babys	-11191
▁banjo	-11192
▁beans	-11193
▁bever	-11194
▁bleed	-11195
▁boots	-11196
▁booty	-11197
▁bound	-11198
▁boxes	-11199
▁bread	-11200
▁buddy	-11201
▁burst	-11202
▁butts	-11203
▁cheek	-11204
▁dough	-11205
▁dozen	-11206
▁drool	-11207
▁drops	-11208
▁envir	-11209
▁exper	-11210
▁feces	-11211
▁flies	-11212
▁forms	-11213
▁fraud	-11214
▁gifts	-11215
▁girth	-11216
▁grass	-11217
▁homes	-11218
▁hoped	-11219
▁imply	-11220
▁inner	-11221
▁kicks	-11222
▁lacks	-11223
▁liter	-11224
▁loyal	-11225
▁moron	-11226
▁mosqu	-11227
▁naive	-11228
▁newly	-11229
▁obnox	-11230
▁picks	-11231
▁poser	-11232
▁punks	-11233
▁quant	-11234
▁range	-11235
▁rapid	-11236
▁recip	-11237
▁remar	-11238
▁rhyme	-11239
▁rides	-11240
▁sheep	-11241
▁skate	-11242
▁socks	-11243
▁spare	-11244
▁stops	-11245
▁trend	-11246
▁troub	-11247
▁tuner	-11248
▁uncon	-11249
▁urine	-11250
▁veget	-11251
▁virgo	-11252
▁votes	-11253
▁weary	-11254
▁whine	-11255
Goodbye	-11256
Nothing	-11257
RAGMENT	-11258
Welcome	-11259
aborate	-11260
agonist	-11261
anchise	-11262
animous	-11263
ansport	-11264
atabase	-11265
berlake	-11266
colored	-11267
cussion	-11268
enerate	-11269
entious	-11270
grounds	-11271
ificent	-11272
illions	-11273
imately	-11274
iterate	-11275
iversal	-11276
natural	-11277
orillaz	-11278
osphere	-11279
ptonite	-11280
quality	-11281
related	-11282
ressive	-11283
stalgic	-11284
ulation	-11285
undance	-11286
written	-11287
▁10,000	-11288
▁Action	-11289
▁Actors	-11290
▁Albert	-11291
▁Allman	-11292
▁Atreyu	-11293
▁Babies	-11294
▁Beaver	-11295
▁Begins	-11296
▁Bright	-11297
▁Bubble	-11298
▁Button	-11299
▁Cannon	-11300
▁Castle	-11301
▁Church	-11302
▁Circle	-11303
▁Cocker	-11304
▁Cotton	-11305
▁County	-11306
▁Cowell	-11307
▁Cradle	-11308
▁Damned	-11309
▁Dancer	-11310
▁Danger	-11311
▁Dement	-11312
▁Denzel	-11313
▁Domino	-11314
▁Donkey	-11315
▁Donnie	-11316
▁Double	-11317
▁Dustin	-11318
▁Flying	-11319
▁Gently	-11320
▁Groban	-11321
▁Grumpy	-11322
▁Harbor	-11323
▁Jacket	-11324
▁Jensen	-11325
▁Joplin	-11326
▁Jungle	-11327
▁Kansas	-11328
▁Killer	-11329
▁Libras	-11330
▁Lizzie	-11331
▁Loving	-11332
▁Madden	-11333
▁Maroon	-11334
▁Marvel	-11335
▁Mighty	-11336
▁Modern	-11337
▁Mostly	-11338
▁Murder	-11339
▁Mystic	-11340
▁Nation	-11341
▁Nearly	-11342
▁Newman	-11343
▁Obtain	-11344
▁Origin	-11345
▁Pacino	-11346
▁Pardon	-11347
▁Planet	-11348
▁Queens	-11349
▁Reaper	-11350
▁Rhythm	-11351
▁Rodney	-11352
▁Roller	-11353
▁Saints	-11354
▁Shadow	-11355
▁Shakur	-11356
▁Shield	-11357
▁Slater	-11358
▁Smiths	-11359
▁Staind	-11360
▁Static	-11361
▁Stella	-11362
▁Stimpy	-11363
▁Strait	-11364
▁Strike	-11365
▁Sunris	-11366
▁Theory	-11367
▁Trinny	-11368
▁Vaughn	-11369
▁Videos	-11370
▁Winnie	-11371
▁Winter	-11372
▁absurd	-11373
▁adored	-11374
▁amplif	-11375
▁assert	-11376
▁awaken	-11377
▁ballad	-11378
▁brainw	-11379
▁breaks	-11380
▁bucket	-11381
▁buried	-11382
▁burner	-11383
▁ceased	-11384
▁chains	-11385
▁cheesy	-11386
▁coffin	-11387
▁condom	-11388
▁conver	-11389
▁county	-11390
▁coward	-11391
▁danced	-11392
▁defeat	-11393
▁denies	-11394
▁detect	-11395
▁econom	-11396
▁edited	-11397
▁escort	-11398
▁fantas	-11399
▁feline	-11400
▁filmed	-11401
▁filthy	-11402
▁flavor	-11403
▁flicks	-11404
▁forest	-11405
▁garden	-11406
▁grunge	-11407
▁hockey	-11408
▁hooked	-11409
▁ingest	-11410
▁judges	-11411
▁killer	-11412
▁kindly	-11413
▁laying	-11414
▁locked	-11415
▁losers	-11416
▁louder	-11417
▁margin	-11418
▁metaph	-11419
▁microw	-11420
▁nicest	-11421
▁operas	-11422
▁pisces	-11423
▁poetry	-11424
▁prices	-11425
▁prizes	-11426
▁profit	-11427
▁promot	-11428
▁punish	-11429
▁puzzle	-11430
▁quirky	-11431
▁racing	-11432
▁rarely	-11433
▁recipe	-11434
▁recoll	-11435
▁rising	-11436
▁sanity	-11437
▁scales	-11438
▁scient	-11439
▁scored	-11440
▁shaped	-11441
▁shirts	-11442
▁silent	-11443
▁smooth	-11444
▁spooky	-11445
▁stairs	-11446
▁steady	-11447
▁streng	-11448
▁suited	-11449
▁taller	-11450
▁theory	-11451
▁toothp	-11452
▁trance	-11453
▁unkind	-11454
▁upside	-11455
▁washed	-11456
▁widely	-11457
▁wooden	-11458
▁zombie	-11459
gforfree	-11460
idesmaid	-11461
oubtedly	-11462
ountered	-11463
rocodile	-11464
▁Actress	-11465
▁Animals	-11466
▁Anyways	-11467
▁Ashanti	-11468
▁Beetles	-11469
▁Blondie	-11470
▁Brandon	-11471
▁Burbank	-11472
▁Cartman	-11473
▁Cassidy	-11474
▁Colbert	-11475
▁Compton	-11476
▁Confess	-11477
▁Connery	-11478
▁Contact	-11479
▁Control	-11480
▁DaVinci	-11481
▁Delight	-11482
▁Dorothy	-11483
▁Extreme	-11484
▁Finally	-11485
▁Forgive	-11486
▁Francis	-11487
▁Frasier	-11488
▁Furious	-11489
▁Grandpa	-11490
▁Indians	-11491
▁Instant	-11492
▁Kennedy	-11493
▁Knights	-11494
▁Married	-11495
▁Martina	-11496
▁McBride	-11497
▁Mercury	-11498
▁Miranda	-11499
▁Mission	-11500
▁Montana	-11501
▁Morning	-11502
▁Placebo	-11503
▁Pretend	-11504
▁Prodigy	-11505
▁Rugrats	-11506
▁Simmons	-11507
▁Singers	-11508
▁Sisters	-11509
▁Smoking	-11510
▁Sparxxx	-11511
▁Sprouse	-11512
▁Strange	-11513
▁Surpris	-11514
▁Trading	-11515
▁Wiggles	-11516
▁adopted	-11517
▁amounts	-11518
▁arguing	-11519
▁arrival	-11520
▁arrives	-11521
▁auction	-11522
▁beating	-11523
▁beleive	-11524
▁blocker	-11525
▁boredom	-11526
▁cheaper	-11527
▁cheerle	-11528
▁circles	-11529
▁conserv	-11530
▁courage	-11531
▁creator	-11532
▁damaged	-11533
▁decline	-11534
▁diamond	-11535
▁divulge	-11536
▁dogpile	-11537
▁drowned	-11538
▁engages	-11539
▁factory	-11540
▁failure	-11541
▁figured	-11542
▁fitting	-11543
▁forgive	-11544
▁fucking	-11545
▁fullest	-11546
▁gorilla	-11547
▁happily	-11548
▁hurting	-11549
▁idiotic	-11550
▁illness	-11551
▁injured	-11552
▁involve	-11553
▁kicking	-11554
▁leather	-11555
▁longest	-11556
▁manners	-11557
▁masturb	-11558
▁matured	-11559
▁maximum	-11560
▁messing	-11561
▁minimum	-11562
▁nearest	-11563
▁nipples	-11564
▁pairing	-11565
▁patient	-11566
▁pattern	-11567
▁peppers	-11568
▁persons	-11569
▁premier	-11570
▁printed	-11571
▁propose	-11572
▁puzzled	-11573
▁rocking	-11574
▁sadness	-11575
▁sensual	-11576
▁seventy	-11577
▁sexiest	-11578
▁shaking	-11579
▁shortly	-11580
▁shouted	-11581
▁somehow	-11582
▁spanish	-11583
▁stepped	-11584
▁stretch	-11585
▁strikes	-11586
▁stuffed	-11587
▁surgeon	-11588
▁surpass	-11589
▁survive	-11590
▁suspect	-11591
▁swallow	-11592
▁televis	-11593
▁therapy	-11594
▁tribute	-11595
▁trivial	-11596
▁untrust	-11597
▁updated	-11598
▁whereas	-11599
▁winners	-11600
▁worship	-11601
Beautiful	-11602
heartedly	-11603
henomenal	-11604
identally	-11605
▁Benjamin	-11606
▁Breaking	-11607
▁Catholic	-11608
▁Champion	-11609
▁Counting	-11610
▁Darkness	-11611
▁Daughter	-11612
▁Examples	-11613
▁Exchange	-11614
▁Fighters	-11615
▁Funniest	-11616
▁Hamilton	-11617
▁Hispanic	-11618
▁Hospital	-11619
▁Longoria	-11620
▁Material	-11621
▁Matthews	-11622
▁Meatloaf	-11623
▁Michaels	-11624
▁Mysterio	-11625
▁Pittsbur	-11626
▁Pressure	-11627
▁Recently	-11628
▁Religion	-11629
▁Revolver	-11630
▁Rhapsody	-11631
▁Samantha	-11632
▁Scarlett	-11633
▁Somebody	-11634
▁Soulseek	-11635
▁Starting	-11636
▁Stranger	-11637
▁Victoria	-11638
▁articles	-11639
▁attempts	-11640
▁ballroom	-11641
▁bringing	-11642
▁commonly	-11643
▁conflict	-11644
▁confront	-11645
▁converse	-11646
▁courting	-11647
▁criminal	-11648
▁customer	-11649
▁deciding	-11650
▁defecate	-11651
▁doubtful	-11652
▁drummers	-11653
▁elevator	-11654
▁endeavor	-11655
▁enthused	-11656
▁feathers	-11657
▁fellatio	-11658
▁formerly	-11659
▁gigabyte	-11660
▁homophob	-11661
▁illusion	-11662
▁imbecile	-11663
▁insisted	-11664
▁jealousy	-11665
▁judgment	-11666
▁knocking	-11667
▁listener	-11668
▁machines	-11669
▁magician	-11670
▁mistakes	-11671
▁misunder	-11672
▁morpheus	-11673
▁musicals	-11674
▁nineties	-11675
▁offering	-11676
▁operator	-11677
▁overcome	-11678
▁paranoid	-11679
▁partners	-11680
▁perished	-11681
▁prettier	-11682
▁profiles	-11683
▁reaction	-11684
▁removing	-11685
▁repaired	-11686
▁replaced	-11687
▁revealed	-11688
▁searches	-11689
▁slapping	-11690
▁slipknot	-11691
▁socially	-11692
▁sounding	-11693
▁stalking	-11694
▁stunning	-11695
▁suffered	-11696
▁suitable	-11697
▁truthful	-11698
▁unsavory	-11699
▁unstable	-11700
▁upcoming	-11701
▁wherever	-11702
ropriately	-11703
▁Aishwarya	-11704
▁Alchemist	-11705
▁Astrology	-11706
▁Chappelle	-11707
▁Cleveland	-11708
▁Dashboard	-11709
▁Gentlemen	-11710
▁Lightning	-11711
▁Offspring	-11712
▁Otherwise	-11713
▁Radiohead	-11714
▁Regarding	-11715
▁Seventeen	-11716
▁Shawshank	-11717
▁afterward	-11718
▁apartment	-11719
▁ascertain	-11720
▁beverages	-11721
▁calculate	-11722
▁comparing	-11723
▁convinced	-11724
▁creatures	-11725
▁criticize	-11726
▁described	-11727
▁describes	-11728
▁disappear	-11729
▁disturbed	-11730
▁eccentric	-11731
▁elaborate	-11732
▁eliminate	-11733
▁emergency	-11734
▁equipment	-11735
▁franchise	-11736
▁freestyle	-11737
▁happiness	-11738
▁identical	-11739
▁imagining	-11740
▁insulting	-11741
▁irritated	-11742
▁materials	-11743
▁movements	-11744
▁musically	-11745
▁nominated	-11746
▁nostalgic	-11747
▁obnoxious	-11748
▁obsession	-11749
▁operating	-11750
▁partially	-11751
▁pedophile	-11752
▁pondering	-11753
▁primarily	-11754
▁releasing	-11755
▁residence	-11756
▁resources	-11757
▁sarcastic	-11758
▁satisfied	-11759
▁scheduled	-11760
▁sentenced	-11761
▁separated	-11762
▁strangers	-11763
▁technical	-11764
▁technique	-11765
▁transport	-11766
▁worthless	-11767
▁Beckinsale	-11768
▁BitTorrent	-11769
▁Bittorrent	-11770
▁Dragonball	-11771
▁Hoobastank	-11772
▁Incredible	-11773
▁Soundtrack	-11774
▁Timberlake	-11775
▁Understand	-11776
▁apparently	-11777
▁cigarettes	-11778
▁commentary	-11779
▁continuing	-11780
▁discussion	-11781
▁engagement	-11782
▁exceptions	-11783
▁fabricated	-11784
▁goosebumps	-11785
▁graduation	-11786
▁importance	-11787
▁influences	-11788
▁misspelled	-11789
▁navigating	-11790
▁portraying	-11791
▁reconsider	-11792
▁referenced	-11793
▁references	-11794
▁suggesting	-11795
▁sunglasses	-11796
▁sympathize	-11797
▁uneducated	-11798
▁Celebrities	-11799
▁Furthermore	-11800
▁Incredibles	-11801
▁beautifully	-11802
▁challenging	-11803
▁connections	-11804
▁destruction	-11805
▁effectively	-11806
▁encountered	-11807
▁essentially	-11808
▁explanation	-11809
▁frustrating	-11810
▁indifferent	-11811
▁millionaire	-11812
▁photographs	-11813
▁provocative	-11814
▁requirement	-11815
▁soundtracks	-11816
▁superlative	-11817
▁surrounding	-11818
▁traditional	-11819
▁translation	-11820
▁undoubtedly	-11821
▁unimportant	-11822
▁unnecessary	-11823
▁accompanying	-11824
▁broadcasting	-11825
▁enthusiastic	-11826
▁individually	-11827
▁overwhelming	-11828
▁participants	-11829
▁satisfaction	-11830
▁sufficiently	-11831
▁surprisingly	-11832
▁establishment	-11833
▁stereotypical	-11834
▁uninteresting	-11835
▁Chamillionaire	-11836
▁recommendation	-11837
';	-11838
)!	-11839
-6	-11840
06	-11841
3)	-11842
31	-11843
35	-11844
47	-11845
56	-11846
64	-11847
65	-11848
69	-11849
77	-11850
86	-11851
87	-11852
95	-11853
97	-11854
?!	-11855
?)	-11856
AH	-11857
AZ	-11858
CK	-11859
De	-11860
Di	-11861
EC	-11862
El	-11863
FL	-11864
Fe	-11865
IR	-11866
KA	-11867
KR	-11868
KY	-11869
LO	-11870
La	-11871
MA	-11872
OD	-11873
OW	-11874
Ok	-11875
PP	-11876
Se	-11877
Sl	-11878
TH	-11879
Tw	-11880
Up	-11881
Us	-11882
XS	-11883
_1	-11884
bc	-11885
bu	-11886
fm	-11887
ii	-11888
iw	-11889
kh	-11890
kr	-11891
mu	-11892
nn	-11893
tp	-11894
vt	-11895
zi	-11896
-12	-11897
-19	-11898
10.	-11899
12.	-11900
30.	-11901
50.	-11902
99.	-11903
ABC	-11904
Bat	-11905
Cat	-11906
Che	-11907
Con	-11908
Des	-11909
End	-11910
Gil	-11911
IDS	-11912
May	-11913
OFX	-11914
Sam	-11915
Sel	-11916
Str	-11917
Unt	-11918
Whe	-11919
aho	-11920
aki	-11921
alo	-11922
amm	-11923
amo	-11924
aru	-11925
asp	-11926
aux	-11927
awa	-11928
ayo	-11929
bey	-11930
bid	-11931
bra	-11932
cal	-11933
chi	-11934
dad	-11935
due	-11936
eep	-11937
ees	-11938
eet	-11939
emp	-11940
erk	-11941
esa	-11942
eta	-11943
gey	-11944
gle	-11945
gom	-11946
hal	-11947
hib	-11948
hum	-11949
iag	-11950
igo	-11951
ima	-11952
imb	-11953
isp	-11954
jol	-11955
ksw	-11956
las	-11957
lej	-11958
mbd	-11959
mtv	-11960
nab	-11961
nac	-11962
nas	-11963
olo	-11964
omo	-11965
ori	-11966
pal	-11967
pen	-11968
rad	-11969
raz	-11970
ria	-11971
rin	-11972
rod	-11973
run	-11974
sky	-11975
sub	-11976
tim	-11977
uet	-11978
uki	-11979
umi	-11980
umn	-11981
uri	-11982
usa	-11983
uty	-11984
van	-11985
voc	-11986
whe	-11987
yna	-11988
yon	-11989
zil	-11990
▁"7	-11991
▁#2	-11992
▁1)	-11993
▁2)	-11994
▁2:	-11995
▁3)	-11996
▁77	-11997
▁8,	-11998
▁88	-11999
▁:)	-12000
▁AF	-12001
▁AS	-12002
▁AT	-12003
▁Ay	-12004
▁BJ	-12005
▁BO	-12006
▁Bj	-12007
▁CB	-12008
▁Cu	-12009
▁Eb	-12010
▁Ew	-12011
▁Fu	-12012
▁GA	-12013
▁GH	-12014
▁GI	-12015
▁Gn	-12016
▁Ho	-12017
▁IC	-12018
▁LS	-12019
▁MB	-12020
▁MU	-12021
▁Oc	-12022
▁PR	-12023
▁SH	-12024
▁SR	-12025
▁Tu	-12026
▁WB	-12027
▁WE	-12028
▁Wu	-12029
▁XP	-12030
▁Za	-12031
▁eM	-12032
▁ft	-12033
▁tu	-12034
▁uh	-12035
▁um	-12036
▁ya	-12037
Dumb	-12038
Eyed	-12039
Fall	-12040
Find	-12041
From	-12042
Give	-12043
Here	-12044
Last	-12045
Nice	-12046
Niro	-12047
Only	-12048
Star	-12049
Stop	-12050
Teen	-12051
True	-12052
Whoa	-12053
Yeah	-12054
abia	-12055
amer	-12056
amir	-12057
amon	-12058
amus	-12059
ango	-12060
answ	-12061
arts	-12062
asel	-12063
aska	-12064
asta	-12065
atus	-12066
aund	-12067
ayne	-12068
azed	-12069
bery	-12070
bomb	-12071
bott	-12072
bows	-12073
cern	-12074
chie	-12075
chio	-12076
coat	-12077
colo	-12078
comp	-12079
done	-12080
dows	-12081
dumb	-12082
eaux	-12083
ebay	-12084
edom	-12085
edys	-12086
elie	-12087
elph	-12088
ened	-12089
eous	-12090
from	-12091
full	-12092
gang	-12093
gens	-12094
gent	-12095
gypt	-12096
hall	-12097
hang	-12098
hara	-12099
hill	-12100
hoff	-12101
hour	-12102
iate	-12103
icit	-12104
ifth	-12105
inks	-12106
inos	-12107
ippy	-12108
izer	-12109
kees	-12110
kill	-12111
lymp	-12112
mand	-12113
mark	-12114
mary	-12115
mbur	-12116
mone	-12117
nard	-12118
ndar	-12119
nect	-12120
nova	-12121
oded	-12122
oncé	-12123
onda	-12124
onel	-12125
oopy	-12126
opot	-12127
oral	-12128
orty	-12129
othe	-12130
peat	-12131
perm	-12132
phas	-12133
pire	-12134
quis	-12135
rant	-12136
rese	-12137
riot	-12138
road	-12139
robe	-12140
rome	-12141
save	-12142
shia	-12143
shop	-12144
shot	-12145
sole	-12146
stop	-12147
sync	-12148
they	-12149
tips	-12150
trav	-12151
uart	-12152
ubes	-12153
uger	-12154
usty	-12155
wait	-12156
weed	-12157
wide	-12158
writ	-12159
xton	-12160
yard	-12161
zona	-12162
▁$10	-12163
▁$20	-12164
▁1-1	-12165
▁11,	-12166
▁12,	-12167
▁14.	-12168
▁16,	-12169
▁17,	-12170
▁18.	-12171
▁20.	-12172
▁21.	-12173
▁24,	-12174
▁60'	-12175
▁Ark	-12176
▁Bag	-12177
▁Bog	-12178
▁Bop	-12179
▁Bor	-12180
▁Bye	-12181
▁CHA	-12182
▁Ced	-12183
▁Cou	-12184
▁Coy	-12185
▁DDR	-12186
▁Dak	-12187
▁Dub	-12188
▁Egg	-12189
▁Ent	-12190
▁FOX	-12191
▁Fal	-12192
▁Fro	-12193
▁Gas	-12194
▁Gib	-12195
▁Hee	-12196
▁Het	-12197
▁Hon	-12198
▁Hyp	-12199
▁Ire	-12200
▁JLo	-12201
▁Kak	-12202
▁Lau	-12203
▁Lex	-12204
▁Lob	-12205
▁Lun	-12206
▁MCR	-12207
▁Mae	-12208
▁Mud	-12209
▁Mus	-12210
▁NAS	-12211
▁Obi	-12212
▁Phe	-12213
▁Pit	-12214
▁Pun	-12215
▁RID	-12216
▁Rae	-12217
▁Raj	-12218
▁Raz	-12219
▁Rex	-12220
▁Rid	-12221
▁Rip	-12222
▁Rud	-12223
▁Sai	-12224
▁Sak	-12225
▁Sas	-12226
▁Sen	-12227
▁Sit	-12228
▁Sly	-12229
▁Tab	-12230
▁Tai	-12231
▁Tan	-12232
▁Tel	-12233
▁Tob	-12234
▁USB	-12235
▁WWF	-12236
▁Wee	-12237
▁Wyn	-12238
▁Zen	-12239
▁aid	-12240
▁amb	-12241
▁atm	-12242
▁ave	-12243
▁avo	-12244
▁bon	-12245
▁bug	-12246
▁cho	-12247
▁dum	-12248
▁dun	-12249
▁ect	-12250
▁ens	-12251
▁ere	-12252
▁fer	-12253
▁fut	-12254
▁gir	-12255
▁gym	-12256
▁hic	-12257
▁ink	-12258
▁inn	-12259
▁lap	-12260
▁lee	-12261
▁leo	-12262
▁lod	-12263
▁lun	-12264
▁maj	-12265
▁mal	-12266
▁mtv	-12267
▁mud	-12268
▁pap	-12269
▁phr	-12270
▁pod	-12271
▁pra	-12272
▁rad	-12273
▁rig	-12274
▁rod	-12275
▁san	-12276
▁sym	-12277
▁tak	-12278
▁tar	-12279
▁tis	-12280
▁vow	-12281
▁vul	-12282
▁wra	-12283
▁wwe	-12284
!!!!!	-12285
Ghost	-12286
Mommy	-12287
Night	-12288
Party	-12289
Remix	-12290
Under	-12291
Wanna	-12292
Young	-12293
aback	-12294
abled	-12295
actly	-12296
acula	-12297
adays	-12298
adequ	-12299
aders	-12300
adeth	-12301
adget	-12302
agedd	-12303
amaha	-12304
amela	-12305
ammer	-12306
andel	-12307
angar	-12308
antab	-12309
anted	-12310
anuts	-12311
apped	-12312
apple	-12313
arcer	-12314
arian	-12315
assed	-12316
atars	-12317
athan	-12318
atics	-12319
aying	-12320
bored	-12321
borne	-12322
burst	-12323
ching	-12324
class	-12325
cover	-12326
crete	-12327
dance	-12328
denly	-12329
dream	-12330
eight	-12331
elvet	-12332
entai	-12333
epers	-12334
erced	-12335
force	-12336
funny	-12337
games	-12338
haled	-12339
hmall	-12340
hrukh	-12341
ianca	-12342
ieved	-12343
ifest	-12344
iffin	-12345
iform	-12346
igans	-12347
illet	-12348
inant	-12349
inked	-12350
inkle	-12351
inton	-12352
iolet	-12353
iques	-12354
irits	-12355
isley	-12356
itone	-12357
ively	-12358
ivors	-12359
izzle	-12360
leans	-12361
lyric	-12362
magic	-12363
moron	-12364
movie	-12365
neezy	-12366
notes	-12367
olved	-12368
oodle	-12369
ordie	-12370
ordon	-12371
orite	-12372
ority	-12373
otape	-12374
othes	-12375
otrip	-12376
ovies	-12377
piece	-12378
rella	-12379
retro	-12380
retty	-12381
rican	-12382
ricks	-12383
sense	-12384
shits	-12385
sound	-12386
stall	-12387
stock	-12388
style	-12389
table	-12390
tains	-12391
tchup	-12392
think	-12393
tress	-12394
umper	-12395
urman	-12396
urous	-12397
urple	-12398
utter	-12399
vance	-12400
warez	-12401
white	-12402
woman	-12403
yllen	-12404
yster	-12405
▁"100	-12406
▁$500	-12407
▁1975	-12408
▁2001	-12409
▁2005	-12410
▁9:00	-12411
▁Acid	-12412
▁Anti	-12413
▁Axel	-12414
▁Bald	-12415
▁Bomb	-12416
▁Bone	-12417
▁Bono	-12418
▁Boss	-12419
▁Bour	-12420
▁Brid	-12421
▁Bros	-12422
▁Calm	-12423
▁Cant	-12424
▁Coca	-12425
▁Comm	-12426
▁Conf	-12427
▁Cons	-12428
▁Cork	-12429
▁Dane	-12430
▁Dani	-12431
▁Darn	-12432
▁Dido	-12433
▁Ding	-12434
▁Disk	-12435
▁Dogs	-12436
▁Eden	-12437
▁Elij	-12438
▁Fans	-12439
▁Farm	-12440
▁Fist	-12441
▁Fitz	-12442
▁Folk	-12443
▁Gate	-12444
▁Geek	-12445
▁Gift	-12446
▁Gods	-12447
▁Greg	-12448
▁HaHa	-12449
▁Hail	-12450
▁Haze	-12451
▁Hide	-12452
▁Hoff	-12453
▁Hour	-12454
▁Imbd	-12455
▁Imdb	-12456
▁Jada	-12457
▁Jedi	-12458
▁Jere	-12459
▁Jord	-12460
▁Junk	-12461
▁Kane	-12462
▁Kath	-12463
▁Kick	-12464
▁Kung	-12465
▁Lara	-12466
▁Lies	-12467
▁Limp	-12468
▁Liza	-12469
▁Luda	-12470
▁Made	-12471
▁Malm	-12472
▁Malo	-12473
▁Manc	-12474
▁Maul	-12475
▁Meet	-12476
▁Milk	-12477
▁NOFX	-12478
▁Navy	-12479
▁Nemo	-12480
▁Nina	-12481
▁Niro	-12482
▁Nope	-12483
▁Numb	-12484
▁Outs	-12485
▁Pers	-12486
▁Phar	-12487
▁Plat	-12488
▁Poor	-12489
▁Pred	-12490
▁Prim	-12491
▁Pull	-12492
▁Pure	-12493
▁Raye	-12494
▁Remy	-12495
▁Reno	-12496
▁Rent	-12497
▁Root	-12498
▁Ruby	-12499
▁Said	-12500
▁Self	-12501
▁Sins	-12502
▁Skid	-12503
▁Slip	-12504
▁Soap	-12505
▁Solo	-12506
▁Stro	-12507
▁Tale	-12508
▁Thin	-12509
▁Tone	-12510
▁Tosh	-12511
▁Trib	-12512
▁Turt	-12513
▁Vend	-12514
▁Vibe	-12515
▁View	-12516
▁Walt	-12517
▁Week	-12518
▁Wham	-12519
▁Wins	-12520
▁Wong	-12521
▁Yayo	-12522
▁Yoko	-12523
▁Zoey	-12524
▁Zone	-12525
▁adds	-12526
▁babe	-12527
▁bags	-12528
▁bare	-12529
▁bark	-12530
▁belt	-12531
▁bone	-12532
▁bong	-12533
▁bubb	-12534
▁buck	-12535
▁bulb	-12536
▁bump	-12537
▁cale	-12538
▁cant	-12539
▁chap	-12540
▁clop	-12541
▁coma	-12542
▁cops	-12543
▁core	-12544
▁cray	-12545
▁cric	-12546
▁cris	-12547
▁cros	-12548
▁cuts	-12549
▁deer	-12550
▁dick	-12551
▁diss	-12552
▁dope	-12553
▁dots	-12554
▁duct	-12555
▁duet	-12556
▁duff	-12557
▁dump	-12558
▁dyed	-12559
▁east	-12560
▁ecst	-12561
▁flag	-12562
▁flew	-12563
▁funk	-12564
▁gamb	-12565
▁gear	-12566
▁glam	-12567
▁gods	-12568
▁goin	-12569
▁gore	-12570
▁hadn	-12571
▁hail	-12572
▁hype	-12573
▁inse	-12574
▁iron	-12575
▁jest	-12576
▁jock	-12577
▁liar	-12578
▁lisp	-12579
▁logo	-12580
▁loos	-12581
▁lust	-12582
▁mass	-12583
▁mere	-12584
▁mild	-12585
▁nuts	-12586
▁pale	-12587
▁para	-12588
▁peop	-12589
▁pile	-12590
▁pine	-12591
▁plag	-12592
▁pomp	-12593
▁pony	-12594
▁pose	-12595
▁pots	-12596
▁quiz	-12597
▁rend	-12598
▁rise	-12599
▁roof	-12600
▁rows	-12601
▁rush	-12602
▁sera	-12603
▁sink	-12604
▁sofa	-12605
▁span	-12606
▁surf	-12607
▁tank	-12608
▁tear	-12609
▁tire	-12610
▁torn	-12611
▁tort	-12612
▁urge	-12613
▁vary	-12614
▁wand	-12615
▁warn	-12616
▁wave	-12617
▁weep	-12618
▁west	-12619
Beauty	-12620
Master	-12621
andora	-12622
apples	-12623
arling	-12624
assing	-12625
assion	-12626
atives	-12627
cation	-12628
culiar	-12629
elphia	-12630
eneres	-12631
engers	-12632
ension	-12633
erable	-12634
ergart	-12635
eroids	-12636
everal	-12637
finder	-12638
forget	-12639
gomery	-12640
hattan	-12641
hemian	-12642
hetics	-12643
iceman	-12644
illian	-12645
ington	-12646
isfits	-12647
isting	-12648
isyahu	-12649
itably	-12650
judice	-12651
liness	-12652
market	-12653
onment	-12654
ookies	-12655
oopers	-12656
oppedy	-12657
orized	-12658
orship	-12659
ourite	-12660
player	-12661
renity	-12662
reston	-12663
rovers	-12664
school	-12665
shirts	-12666
stairs	-12667
stones	-12668
ubbies	-12669
ubster	-12670
ulence	-12671
ullaby	-12672
uments	-12673
uously	-12674
videoc	-12675
videos	-12676
volume	-12677
▁1-800	-12678
▁1972.	-12679
▁1979.	-12680
▁1990,	-12681
▁2002,	-12682
▁2004.	-12683
▁2007.	-12684
▁Alley	-12685
▁Along	-12686
▁Angus	-12687
▁Appro	-12688
▁Arnie	-12689
▁Baron	-12690
▁Beeth	-12691
▁Bitch	-12692
▁Bless	-12693
▁Bliss	-12694
▁Booty	-12695
▁Bravo	-12696
▁Casey	-12697
▁Cease	-12698
▁Chaka	-12699
▁Chevy	-12700
▁Clock	-12701
▁Coach	-12702
▁Combs	-12703
▁Comes	-12704
▁Const	-12705
▁Craft	-12706
▁Creek	-12707
▁Crowe	-12708
▁Daisy	-12709
▁Derek	-12710
▁Deuce	-12711
▁Dhoom	-12712
▁Diane	-12713
▁Dixie	-12714
▁Egypt	-12715
▁Ellis	-12716
▁Fever	-12717
▁Field	-12718
▁Flies	-12719
▁Flint	-12720
▁Funky	-12721
▁Games	-12722
▁Gavin	-12723
▁Given	-12724
▁Glory	-12725
▁Grant	-12726
▁Hagar	-12727
▁Heard	-12728
▁Hives	-12729
▁Hogan	-12730
▁Horse	-12731
▁Isley	-12732
▁Jared	-12733
▁Jaron	-12734
▁Jelly	-12735
▁Jenna	-12736
▁Jodie	-12737
▁Joker	-12738
▁Jokes	-12739
▁Judds	-12740
▁Juice	-12741
▁Kajol	-12742
▁Karma	-12743
▁Kazza	-12744
▁Kimmy	-12745
▁Label	-12746
▁Lambs	-12747
▁Lance	-12748
▁Large	-12749
▁Later	-12750
▁Laura	-12751
▁Learn	-12752
▁Level	-12753
▁Lions	-12754
▁Lizzy	-12755
▁Lynch	-12756
▁Maine	-12757
▁Marry	-12758
▁Micro	-12759
▁Mikey	-12760
▁Nanny	-12761
▁Oaken	-12762
▁Oooee	-12763
▁Percy	-12764
▁Phone	-12765
▁Piano	-12766
▁Pussy	-12767
▁Quick	-12768
▁Raise	-12769
▁Ringo	-12770
▁Roach	-12771
▁Sadly	-12772
▁Shack	-12773
▁Shark	-12774
▁Shoes	-12775
▁Silly	-12776
▁Smart	-12777
▁Sonic	-12778
▁Sparx	-12779
▁Spock	-12780
▁Squad	-12781
▁Squir	-12782
▁Sting	-12783
▁Style	-12784
▁Suite	-12785
▁Sweat	-12786
▁Tears	-12787
▁Theme	-12788
▁Third	-12789
▁Title	-12790
▁Tokyo	-12791
▁Tooth	-12792
▁Tough	-12793
▁Treat	-12794
▁Trina	-12795
▁Truly	-12796
▁Unfor	-12797
▁Wants	-12798
▁Wheel	-12799
▁Willy	-12800
▁Wisin	-12801
▁Worth	-12802
▁Wrong	-12803
▁Xanga	-12804
▁Youth	-12805
▁ambul	-12806
▁armor	-12807
▁astro	-12808
▁barbe	-12809
▁beast	-12810
▁begun	-12811
▁bench	-12812
▁blade	-12813
▁bland	-12814
▁blank	-12815
▁bling	-12816
▁bowel	-12817
▁brass	-12818
▁chart	-12819
▁climb	-12820
▁decor	-12821
▁desce	-12822
▁dread	-12823
▁dryer	-12824
▁ducks	-12825
▁effic	-12826
▁fancy	-12827
▁furry	-12828
▁grams	-12829
▁grave	-12830
▁hears	-12831
▁heter	-12832
▁hired	-12833
▁honky	-12834
▁horns	-12835
▁insur	-12836
▁intim	-12837
▁lands	-12838
▁laser	-12839
▁laund	-12840
▁lions	-12841
▁lipos	-12842
▁lousy	-12843
▁maker	-12844
▁manly	-12845
▁march	-12846
▁minus	-12847
▁misin	-12848
▁mixes	-12849
▁motor	-12850
▁mucus	-12851
▁multi	-12852
▁nasal	-12853
▁ninth	-12854
▁north	-12855
▁nurse	-12856
▁oddly	-12857
▁ourse	-12858
▁outer	-12859
▁panda	-12860
▁patch	-12861
▁pedal	-12862
▁peers	-12863
▁pills	-12864
▁plead	-12865
▁pride	-12866
▁pubic	-12867
▁queer	-12868
▁react	-12869
▁rearr	-12870
▁recap	-12871
▁royal	-12872
▁seeds	-12873
▁shell	-12874
▁shook	-12875
▁shore	-12876
▁simpl	-12877
▁sissy	-12878
▁skirt	-12879
▁slept	-12880
▁slide	-12881
▁sling	-12882
▁smurf	-12883
▁spark	-12884
▁sperm	-12885
▁spoof	-12886
▁spoon	-12887
▁spots	-12888
▁stalk	-12889
▁stomp	-12890
▁stone	-12891
▁stool	-12892
▁tablo	-12893
▁tasks	-12894
▁taxes	-12895
▁thirt	-12896
▁thong	-12897
▁traff	-12898
▁turnt	-12899
▁vague	-12900
▁waddy	-12901
▁waves	-12902
▁whist	-12903
▁whore	-12904
▁wires	-12905
▁woods	-12906
▁worms	-12907
Charmed	-12908
Endless	-12909
Finding	-12910
Gilmore	-12911
Without	-12912
ageddon	-12913
asteful	-12914
berries	-12915
channel	-12916
eopardy	-12917
essment	-12918
formers	-12919
hundred	-12920
ichever	-12921
itating	-12922
itation	-12923
ivation	-12924
ivision	-12925
ologist	-12926
onymous	-12927
otonous	-12928
parable	-12929
pically	-12930
plicate	-12931
ression	-12932
rolling	-12933
uggling	-12934
vention	-12935
▁Addict	-12936
▁Advent	-12937
▁Alanis	-12938
▁Alexis	-12939
▁Asians	-12940
▁Barnes	-12941
▁Basket	-12942
▁Belong	-12943
▁Better	-12944
▁Bianca	-12945
▁Bonnie	-12946
▁Brandy	-12947
▁Brazil	-12948
▁Bridge	-12949
▁Browse	-12950
▁Bucket	-12951
▁Called	-12952
▁Casino	-12953
▁Change	-12954
▁Cheech	-12955
▁Cherry	-12956
▁Claire	-12957
▁Closer	-12958
▁Clowns	-12959
▁Collin	-12960
▁Concer	-12961
▁Contin	-12962
▁Cookie	-12963
▁Create	-12964
▁Dakota	-12965
▁DeNiro	-12966
▁Eleven	-12967
▁Empire	-12968
▁Famous	-12969
▁Femmes	-12970
▁Ferris	-12971
▁Flavor	-12972
▁Flight	-12973
▁Fluffy	-12974
▁France	-12975
▁Garcia	-12976
▁Gerald	-12977
▁Gordon	-12978
▁Gothic	-12979
▁Grudge	-12980
▁Gyllen	-12981
▁Hahaha	-12982
▁Hanson	-12983
▁Harold	-12984
▁Harvey	-12985
▁Health	-12986
▁Hentai	-12987
▁Herbie	-12988
▁Hunger	-12989
▁Insert	-12990
▁Inside	-12991
▁Jagger	-12992
▁Julian	-12993
▁Junior	-12994
▁Kinnik	-12995
▁Ladder	-12996
▁Ladies	-12997
▁League	-12998
▁Ledger	-12999
▁Lynard	-13000
▁Lynyrd	-13001
▁Magnum	-13002
▁Mencia	-13003
▁Method	-13004
▁Minnie	-13005
▁Moment	-13006
▁Myself	-13007
▁Nights	-13008
▁Oliver	-13009
▁Others	-13010
▁Pakist	-13011
▁Pamela	-13012
▁Peanut	-13013
▁Pierce	-13014
▁Postal	-13015
▁Rasmus	-13016
▁Reason	-13017
▁Reject	-13018
▁Remove	-13019
▁Report	-13020
▁Riddle	-13021
▁Rising	-13022
▁Romant	-13023
▁Ronnie	-13024
▁Rupert	-13025
▁Sandra	-13026
▁Sardar	-13027
▁Satisf	-13028
▁Schwar	-13029
▁Select	-13030
▁Selena	-13031
▁Sledge	-13032
▁Sneezy	-13033
▁Sports	-13034
▁Sprint	-13035
▁Stitch	-13036
▁Topher	-13037
▁Traged	-13038
▁Travel	-13039
▁Tyrese	-13040
▁Vedder	-13041
▁Velvet	-13042
▁Vinnie	-13043
▁Virgos	-13044
▁Voices	-13045
▁Volksw	-13046
▁Webbie	-13047
▁Worlds	-13048
▁Yamaha	-13049
▁Yandel	-13050
▁adding	-13051
▁adhere	-13052
▁adjust	-13053
▁amuses	-13054
▁annoys	-13055
▁aspire	-13056
▁batman	-13057
▁beaten	-13058
▁biting	-13059
▁bleach	-13060
▁bricks	-13061
▁burger	-13062
▁cables	-13063
▁carrie	-13064
▁casino	-13065
▁cheeks	-13066
▁cherry	-13067
▁chicks	-13068
▁christ	-13069
▁circle	-13070
▁cooked	-13071
▁cooler	-13072
▁cowork	-13073
▁cutest	-13074
▁dearly	-13075
▁deeper	-13076
▁denial	-13077
▁devast	-13078
▁disney	-13079
▁emphas	-13080
▁emphat	-13081
▁enable	-13082
▁erotic	-13083
▁extras	-13084
▁facing	-13085
▁ferret	-13086
▁fiddle	-13087
▁fights	-13088
▁filter	-13089
▁firmly	-13090
▁fought	-13091
▁fourty	-13092
▁freaky	-13093
▁frozen	-13094
▁gained	-13095
▁gently	-13096
▁ghosts	-13097
▁golden	-13098
▁hambur	-13099
▁handed	-13100
▁harmon	-13101
▁hating	-13102
▁hiphop	-13103
▁horrid	-13104
▁hotdog	-13105
▁houses	-13106
▁junior	-13107
▁labels	-13108
▁laptop	-13109
▁latter	-13110
▁leader	-13111
▁lesser	-13112
▁lineup	-13113
▁manual	-13114
▁matrix	-13115
▁morals	-13116
▁native	-13117
▁nephew	-13118
▁novels	-13119
▁oxygen	-13120
▁packed	-13121
▁pardon	-13122
▁parrot	-13123
▁patern	-13124
▁pepper	-13125
▁perpet	-13126
▁peruse	-13127
▁phones	-13128
▁pissed	-13129
▁posing	-13130
▁potato	-13131
▁preppy	-13132
▁psycho	-13133
▁quoted	-13134
▁quotes	-13135
▁ranked	-13136
▁rectum	-13137
▁remade	-13138
▁replac	-13139
▁resume	-13140
▁rocker	-13141
▁rolled	-13142
▁rotten	-13143
▁safely	-13144
▁sailor	-13145
▁sample	-13146
▁senior	-13147
▁serves	-13148
▁sesame	-13149
▁shoots	-13150
▁shorts	-13151
▁silver	-13152
▁skirts	-13153
▁smoked	-13154
▁sneaky	-13155
▁solved	-13156
▁sooner	-13157
▁spoken	-13158
▁stance	-13159
▁supper	-13160
▁swings	-13161
▁tables	-13162
▁teller	-13163
▁tennis	-13164
▁thighs	-13165
▁thrash	-13166
▁tomato	-13167
▁trends	-13168
▁unplug	-13169
▁untrue	-13170
▁vacuum	-13171
▁vagina	-13172
▁verses	-13173
▁waited	-13174
▁wander	-13175
▁weighs	-13176
▁worker	-13177
Limewire	-13178
adequate	-13179
aneously	-13180
atically	-13181
boarding	-13182
credited	-13183
daughter	-13184
ensitive	-13185
hmallows	-13186
ityville	-13187
ividuals	-13188
ological	-13189
released	-13190
standard	-13191
unescape	-13192
▁100,000	-13193
▁Affleck	-13194
▁Andrews	-13195
▁Arabian	-13196
▁Arizona	-13197
▁Artists	-13198
▁Avenged	-13199
▁Average	-13200
▁Barbara	-13201
▁Bashful	-13202
▁Beyoncé	-13203
▁Blondes	-13204
▁Buckley	-13205
▁Cabrera	-13206
▁Calling	-13207
▁Cheaper	-13208
▁Crystal	-13209
▁Culture	-13210
▁Daniels	-13211
▁Darling	-13212
▁Digital	-13213
▁Doctors	-13214
▁Electra	-13215
▁Exactly	-13216
▁Examine	-13217
▁Finding	-13218
▁Flowers	-13219
▁Garbage	-13220
▁Goodman	-13221
▁Gosling	-13222
▁Hoffman	-13223
▁Hopkins	-13224
▁Inquire	-13225
▁Ireland	-13226
▁Keyshia	-13227
▁Kristen	-13228
▁Latifah	-13229
▁Machine	-13230
▁Manners	-13231
▁Marylin	-13232
▁McGuire	-13233
▁Memoirs	-13234
▁Micheal	-13235
▁Mocking	-13236
▁Muppets	-13237
▁Orleans	-13238
▁Osborne	-13239
▁Pacific	-13240
▁Paisley	-13241
▁Preston	-13242
▁Proceed	-13243
▁Project	-13244
▁Provide	-13245
▁Quentin	-13246
▁Reality	-13247
▁Request	-13248
▁Rurouni	-13249
▁Sabrina	-13250
▁Science	-13251
▁Secrets	-13252
▁Several	-13253
▁Silence	-13254
▁Skillet	-13255
▁Skynyrd	-13256
▁Society	-13257
▁Stryker	-13258
▁Sunrise	-13259
▁Theatre	-13260
▁Thurman	-13261
▁Tiffany	-13262
▁Totally	-13263
▁Trouble	-13264
▁Turtles	-13265
▁Vitamin	-13266
▁Waiting	-13267
▁Welling	-13268
▁Winslet	-13269
▁Wynonna	-13270
▁addicts	-13271
▁admirer	-13272
▁applied	-13273
▁aroused	-13274
▁assured	-13275
▁authors	-13276
▁avatars	-13277
▁avoided	-13278
▁battery	-13279
▁bizarre	-13280
▁blanket	-13281
▁blessed	-13282
▁booking	-13283
▁bullets	-13284
▁buttons	-13285
▁capital	-13286
▁capture	-13287
▁casinos	-13288
▁charged	-13289
▁cherish	-13290
▁chewing	-13291
▁chooses	-13292
▁chuckle	-13293
▁claimed	-13294
▁cleaned	-13295
▁comfort	-13296
▁compens	-13297
▁comprom	-13298
▁convert	-13299
▁convict	-13300
▁coolest	-13301
▁copying	-13302
▁cracked	-13303
▁crashed	-13304
▁debuted	-13305
▁degrees	-13306
▁dessert	-13307
▁disband	-13308
▁discern	-13309
▁distant	-13310
▁dragged	-13311
▁drunken	-13312
▁editing	-13313
▁element	-13314
▁endings	-13315
▁endless	-13316
▁endowed	-13317
▁envious	-13318
▁escaped	-13319
▁fastest	-13320
▁fighter	-13321
▁footage	-13322
▁forcing	-13323
▁freedom	-13324
▁gallery	-13325
▁glanced	-13326
▁goodies	-13327
▁gravity	-13328
▁happier	-13329
▁harmony	-13330
▁heading	-13331
▁heroine	-13332
▁idolize	-13333
▁impregn	-13334
▁inkling	-13335
▁joining	-13336
▁judging	-13337
▁ketchup	-13338
▁knocked	-13339
▁largest	-13340
▁layouts	-13341
▁operate	-13342
▁ordered	-13343
▁outfits	-13344
▁peanuts	-13345
▁peoples	-13346
▁phrases	-13347
▁pompous	-13348
▁presume	-13349
▁primary	-13350
▁publish	-13351
▁puppies	-13352
▁queries	-13353
▁readily	-13354
▁recover	-13355
▁refresh	-13356
▁regards	-13357
▁relates	-13358
▁remakes	-13359
▁reports	-13360
▁resolve	-13361
▁rooting	-13362
▁routine	-13363
▁saddest	-13364
▁samples	-13365
▁shampoo	-13366
▁signals	-13367
▁slender	-13368
▁species	-13369
▁sponsor	-13370
▁stabbed	-13371
▁streets	-13372
▁studied	-13373
▁stumped	-13374
▁tempted	-13375
▁trilogy	-13376
▁trusted	-13377
▁twelfth	-13378
▁uniform	-13379
▁updates	-13380
▁victims	-13381
▁viewers	-13382
▁visible	-13383
▁vomited	-13384
▁whiskey	-13385
Operation	-13386
ibilities	-13387
ographies	-13388
thbusters	-13389
▁Banderas	-13390
▁Campbell	-13391
▁Champloo	-13392
▁Chandler	-13393
▁Compared	-13394
▁Criminal	-13395
▁Database	-13396
▁Dominoes	-13397
▁Drinking	-13398
▁Eastside	-13399
▁Elephant	-13400
▁Gangster	-13401
▁Gorillaz	-13402
▁Grateful	-13403
▁Hetfield	-13404
▁Jonathan	-13405
▁Kennedys	-13406
▁Megadeth	-13407
▁Midnight	-13408
▁Pictures	-13409
▁Practice	-13410
▁Prisoner	-13411
▁Resident	-13412
▁Restless	-13413
▁Spending	-13414
▁Sprocket	-13415
▁Squirrel	-13416
▁Suddenly	-13417
▁Thompson	-13418
▁Vendetta	-13419
▁Yourself	-13420
▁abnormal	-13421
▁approved	-13422
▁aquarius	-13423
▁arranged	-13424
▁artistic	-13425
▁basement	-13426
▁beginner	-13427
▁behaving	-13428
▁benefits	-13429
▁calendar	-13430
▁capacity	-13431
▁censored	-13432
▁chatting	-13433
▁citizens	-13434
▁coconuts	-13435
▁colorful	-13436
▁comeback	-13437
▁contacts	-13438
▁contempl	-13439
▁contests	-13440
▁convince	-13441
▁crawling	-13442
▁creature	-13443
▁darkness	-13444
▁defeated	-13445
▁dinosaur	-13446
▁disaster	-13447
▁disheart	-13448
▁ecstatic	-13449
▁elevated	-13450
▁emailing	-13451
▁exclaims	-13452
▁freaking	-13453
▁frequent	-13454
▁gambling	-13455
▁gruesome	-13456
▁halftime	-13457
▁happiest	-13458
▁heritage	-13459
▁impaired	-13460
▁incarcer	-13461
▁infinity	-13462
▁inquires	-13463
▁inspired	-13464
▁juvenile	-13465
▁labelled	-13466
▁lesbians	-13467
▁lipstick	-13468
▁marching	-13469
▁marrying	-13470
▁mattress	-13471
▁maturity	-13472
▁measured	-13473
▁mentions	-13474
▁millions	-13475
▁mininova	-13476
▁modeling	-13477
▁molester	-13478
▁muscular	-13479
▁national	-13480
▁nineteen	-13481
▁occupied	-13482
▁painting	-13483
▁pancakes	-13484
▁paramour	-13485
▁peculiar	-13486
▁platform	-13487
▁platinum	-13488
▁pointing	-13489
▁politics	-13490
▁portable	-13491
▁psychiat	-13492
▁pursuing	-13493
▁rephrase	-13494
▁reserved	-13495
▁resigned	-13496
▁reviewed	-13497
▁scariest	-13498
▁scenario	-13499
▁siblings	-13500
▁skeleton	-13501
▁southern	-13502
▁standard	-13503
▁startled	-13504
▁stereoty	-13505
▁steroids	-13506
▁strength	-13507
▁subjects	-13508
▁substant	-13509
▁suggests	-13510
▁suitcase	-13511
▁survived	-13512
▁teaching	-13513
▁tendency	-13514
▁terribly	-13515
▁traveled	-13516
▁underage	-13517
▁username	-13518
▁weddings	-13519
▁weekends	-13520
▁worrying	-13521
▁Alexander	-13522
▁Animation	-13523
▁Boomerang	-13524
▁Catherine	-13525
▁Detective	-13526
▁Incorrect	-13527
▁Lifehouse	-13528
▁Louisiana	-13529
▁Malmsteen	-13530
▁Manhattan	-13531
▁Matisyahu	-13532
▁Notorious	-13533
▁Rammstein	-13534
▁Righteous	-13535
▁Scorpions	-13536
▁SpongeBob	-13537
▁Sugarland	-13538
▁Superbowl	-13539
▁Superstar	-13540
▁Sylvester	-13541
▁Telephone	-13542
▁Tragedies	-13543
▁Wentworth	-13544
▁accepting	-13545
▁accessing	-13546
▁adamantly	-13547
▁addresses	-13548
▁admirable	-13549
▁alternate	-13550
▁assertion	-13551
▁autograph	-13552
▁boomerang	-13553
▁bothering	-13554
▁breathing	-13555
▁brunettes	-13556
▁butterfly	-13557
▁collected	-13558
▁collector	-13559
▁commented	-13560
▁compelled	-13561
▁conceited	-13562
▁confirmed	-13563
▁conscious	-13564
▁contained	-13565
▁container	-13566
▁coolgoose	-13567
▁crocodile	-13568
▁directors	-13569
▁elevators	-13570
▁encounter	-13571
▁everytime	-13572
▁exclusive	-13573
▁expertise	-13574
▁exploring	-13575
▁fashioned	-13576
▁gangsters	-13577
▁gigabytes	-13578
▁highlight	-13579
▁increased	-13580
▁inquiries	-13581
▁installed	-13582
▁intrigued	-13583
▁involving	-13584
▁locations	-13585
▁marketing	-13586
▁microwave	-13587
▁obsessive	-13588
▁offspring	-13589
▁orchestra	-13590
▁ourselves	-13591
▁preformed	-13592
▁pregnancy	-13593
▁profanity	-13594
▁reiterate	-13595
▁remarried	-13596
▁reminding	-13597
▁rendition	-13598
▁reproduce	-13599
▁repulsive	-13600
▁saxophone	-13601
▁screening	-13602
▁sensitive	-13603
▁seventies	-13604
▁shoulders	-13605
▁similarly	-13606
▁strongest	-13607
▁submitted	-13608
▁succeeded	-13609
▁suffering	-13610
▁superhero	-13611
▁survivors	-13612
▁televison	-13613
▁temporary	-13614
▁thrilling	-13615
▁translate	-13616
▁treatment	-13617
▁upsetting	-13618
▁variables	-13619
▁virginity	-13620
▁whichever	-13621
▁Armageddon	-13622
▁Basketball	-13623
▁Bloodhound	-13624
▁Christians	-13625
▁Girlfriend	-13626
▁Impossible	-13627
▁Leprechaun	-13628
▁Montgomery	-13629
▁Nickleback	-13630
▁Pittsburgh	-13631
▁Presumably	-13632
▁Switchfoot	-13633
▁Telecaster	-13634
▁Undertaker	-13635
▁approached	-13636
▁approaches	-13637
▁assessment	-13638
▁atmosphere	-13639
▁attendance	-13640
▁bridesmaid	-13641
▁companions	-13642
▁compliment	-13643
▁controvers	-13644
▁degenerate	-13645
▁delightful	-13646
▁enthusiasm	-13647
▁fanfiction	-13648
▁flatulence	-13649
▁homophobic	-13650
▁identified	-13651
▁inadequate	-13652
▁industries	-13653
▁influenced	-13654
▁literature	-13655
▁meaningful	-13656
▁membership	-13657
▁mentioning	-13658
▁monotonous	-13659
▁newspapers	-13660
▁occurrence	-13661
▁overpriced	-13662
▁passionate	-13663
▁phenomenal	-13664
▁pineapples	-13665
▁productive	-13666
▁remarkable	-13667
▁roundhouse	-13668
▁screenplay	-13669
▁statistics	-13670
▁supposedly	-13671
▁terrifying	-13672
▁toothpaste	-13673
▁underworld	-13674
▁unsettling	-13675
▁yourselves	-13676
▁Hilariously	-13677
▁Individuals	-13678
▁Playstation	-13679
▁Scientology	-13680
▁Technically	-13681
▁Teletubbies	-13682
▁Thundercats	-13683
▁adventurous	-13684
▁application	-13685
▁approaching	-13686
▁babysitting	-13687
▁biographies	-13688
▁brainwashed	-13689
▁composition	-13690
▁convenience	-13691
▁demonstrate	-13692
▁desperately	-13693
▁disappeared	-13694
▁distasteful	-13695
▁distributed	-13696
▁electricity	-13697
▁environment	-13698
▁expressions	-13699
▁fascinating	-13700
▁functioning	-13701
▁girlfriends	-13702
▁influential	-13703
▁installment	-13704
▁liposuction	-13705
▁pretentious	-13706
▁substandard	-13707
▁televisions	-13708
▁trafficking	-13709
▁Confessional	-13710
▁Surprisingly	-13711
▁Ticketmaster	-13712
▁Transformers	-13713
▁abbreviation	-13714
▁accomplished	-13715
▁anticipating	-13716
▁anticipation	-13717
▁appreciation	-13718
▁circumstance	-13719
▁conservative	-13720
▁considerably	-13721
▁continuously	-13722
▁demonstrates	-13723
▁downloadable	-13724
▁expectations	-13725
▁instrumental	-13726
▁introduction	-13727
▁marshmallows	-13728
▁organization	-13729
▁recollection	-13730
▁subsequently	-13731
▁Approximately	-13732
▁acquaintances	-13733
▁homosexuality	-13734
▁intentionally	-13735
▁misunderstood	-13736
▁untrustworthy	-13737
▁attractiveness	-13738
▁intellectually	-13739
▁representative	-13740
-$	-13741
1?	-13742
22	-13743
52	-13744
Ab	-13745
Cl	-13746
Db	-13747
GF	-13748
LR	-13749
SP	-13750
TO	-13751
TT	-13752
Wr	-13753
XI	-13754
cd	-13755
uj	-13756
uv	-13757
wy	-13758
▁;	-13759
▁q	-13760
)."	-13761
-13	-13762
.",	-13763
10)	-13764
2.1	-13765
3."	-13766
500	-13767
6-8	-13768
79,	-13769
Ali	-13770
Del	-13771
Eng	-13772
Exc	-13773
Eye	-13774
Far	-13775
Fat	-13776
Fed	-13777
ICS	-13778
Imp	-13779
LIN	-13780
Loc	-13781
Mag	-13782
Mel	-13783
OOD	-13784
OUL	-13785
Que	-13786
Rob	-13787
TER	-13788
TLE	-13789
Tox	-13790
Two	-13791
USA	-13792
USH	-13793
YAH	-13794
YNC	-13795
___	-13796
aba	-13797
agg	-13798
agm	-13799
LA	-13800
gi	-13801
ahl	-13802
auc	-13803
axy	-13804
aya	-13805
bag	-13806
bok	-13807
bud	-13808
ego	-13809
eze	-13810
foy	-13811
hno	-13812
hub	-13813
ibr	-13814
ico	-13815
iki	-13816
iky	-13817
ipt	-13818
iqu	-13819
iya	-13820
job	-13821
kab	-13822
kid	-13823
kit	-13824
kov	-13825
lbs	-13826
leg	-13827
lem	-13828
lma	-13829
lot	-13830
lux	-13831
ngw	-13832
nin	-13833
obe	-13834
oga	-13835
omi	-13836
oru	-13837
peg	-13838
pir	-13839
pps	-13840
psy	-13841
rer	-13842
rig	-13843
sel	-13844
set	-13845
spy	-13846
tab	-13847
tak	-13848
try	-13849
tte	-13850
tub	-13851
uda	-13852
uos	-13853
was	-13854
wer	-13855
wyn	-13856
yde	-13857
▁".	-13858
▁$7	-13859
▁$8	-13860
▁''	-13861
▁(1	-13862
▁0.	-13863
▁00	-13864
▁1&	-13865
▁3!	-13866
▁32	-13867
▁37	-13868
▁48	-13869
▁4:	-13870
▁51	-13871
▁54	-13872
▁62	-13873
▁6:	-13874
▁7"	-13875
▁82	-13876
▁9/	-13877
▁94	-13878
▁98	-13879
▁CT	-13880
▁DB	-13881
▁Dy	-13882
▁Er	-13883
▁Ft	-13884
▁HA	-13885
▁HM	-13886
▁Il	-13887
▁JO	-13888
▁JR	-13889
▁KY	-13890
▁LE	-13891
▁NB	-13892
▁NO	-13893
▁QU	-13894
▁SM	-13895
▁Tv	-13896
▁Vo	-13897
▁Vs	-13898
▁XX	-13899
2?	-13900
MP	-13901
mx	-13902
Mad	-13903
imi	-13904
mit	-13905
oto	-13906
uca	-13907
▁Lt	-13908
▁NK	-13909
▁Nn	-13910
▁SE	-13911
▁Ul	-13912
▁ZZ	-13913
▁eg	-13914
▁vh	-13915
!...	-13916
)...	-13917
-198	-13918
-330	-13919
-530	-13920
250.	-13921
67),	-13922
Chan	-13923
Chop	-13924
Cont	-13925
Dead	-13926
Dude	-13927
Head	-13928
Hell	-13929
Hold	-13930
John	-13931
Life	-13932
List	-13933
Live	-13934
Lord	-13935
Mean	-13936
Meet	-13937
Moon	-13938
OUND	-13939
Pulp	-13940
Pump	-13941
RICS	-13942
Requ	-13943
Save	-13944
Sing	-13945
They	-13946
Torn	-13947
Tuck	-13948
WWWW	-13949
Wild	-13950
Wish	-13951
agas	-13952
agen	-13953
ahon	-13954
aign	-13955
akim	-13956
alks	-13957
aman	-13958
ambi	-13959
ambo	-13960
amis	-13961
appa	-13962
ardv	-13963
arer	-13964
arms	-13965
artz	-13966
ashi	-13967
asis	-13968
atum	-13969
avar	-13970
aved	-13971
avel	-13972
bang	-13973
baum	-13974
best	-13975
bits	-13976
blue	-13977
boys	-13978
cafe	-13979
char	-13980
chet	-13981
club	-13982
cock	-13983
coon	-13984
craw	-13985
dams	-13986
eddl	-13987
eleb	-13988
elry	-13989
enna	-13990
eros	-13991
ewis	-13992
fork	-13993
fred	-13994
gedy	-13995
gian	-13996
hamm	-13997
heed	-13998
heli	-13999
,,	-14000
4)	-14001
Hi	-14002
-14	-14003
Cal	-14004
ICE	-14005
alu	-14006
kat	-14007
lde	-14008
mac	-14009
pac	-14010
ulu	-14011
uro	-14012
▁BA	-14013
▁BE	-14014
▁Dj	-14015
▁Fo	-14016
▁PJ	-14017
▁SW	-14018
▁Uh	-14019
▁WH	-14020
Song	-14021
Will	-14022
ador	-14023
aldo	-14024
hens	-14025
heny	-14026
ichi	-14027
icho	-14028
icid	-14029
ifle	-14030
igel	-14031
igga	-14032
iken	-14033
ilee	-14034
ilos	-14035
into	-14036
irez	-14037
itos	-14038
ivek	-14039
jabi	-14040
kend	-14041
kett	-14042
kick	-14043
lace	-14044
leaf	-14045
ledg	-14046
lest	-14047
lets	-14048
lter	-14049
mang	-14050
mann	-14051
mony	-14052
mour	-14053
nest	-14054
nock	-14055
ocop	-14056
odel	-14057
odka	-14058
ogen	-14059
okay	-14060
okey	-14061
olit	-14062
ompe	-14063
onde	-14064
ools	-14065
oper	-14066
ovan	-14067
ovep	-14068
ovic	-14069
pine	-14070
plet	-14071
pred	-14072
prom	-14073
prop	-14074
rece	-14075
riad	-14076
rict	-14077
rika	-14078
rily	-14079
rior	-14080
rose	-14081
rubs	-14082
ruly	-14083
runs	-14084
seem	-14085
seud	-14086
shar	-14087
show	-14088
spot	-14089
take	-14090
text	-14091
them	-14092
type	-14093
ubby	-14094
ucci	-14095
uits	-14096
umbs	-14097
unte	-14098
uppy	-14099
44	-14100
FB	-14101
HN	-14102
Pr	-14103
Vo	-14104
tz	-14105
Cas	-14106
Eat	-14107
Fly	-14108
Put	-14109
kle	-14110
mom	-14111
nic	-14112
obl	-14113
orr	-14114
pon	-14115
▁35	-14116
▁OB	-14117
▁eb	-14118
Holl	-14119
Phot	-14120
Rest	-14121
eden	-14122
eled	-14123
erve	-14124
ethe	-14125
gred	-14126
ieth	-14127
kell	-14128
usha	-14129
usho	-14130
vise	-14131
wave	-14132
wear	-14133
west	-14134
wick	-14135
wild	-14136
will	-14137
zart	-14138
zene	-14139
▁"24	-14140
▁$12	-14141
▁$3.	-14142
▁$80	-14143
▁***	-14144
▁.09	-14145
▁.45	-14146
▁1-8	-14147
▁106	-14148
▁110	-14149
▁123	-14150
▁188	-14151
▁190	-14152
▁2.5	-14153
▁20'	-14154
▁23,	-14155
▁25.	-14156
▁252	-14157
▁26.	-14158
▁275	-14159
▁28.	-14160
▁281	-14161
▁29.	-14162
▁30.	-14163
▁350	-14164
▁400	-14165
▁45.	-14166
▁512	-14167
▁800	-14168
▁912	-14169
▁915	-14170
▁Ald	-14171
▁Alf	-14172
▁Alm	-14173
▁Amb	-14174
▁Ami	-14175
▁Ana	-14176
▁Ate	-14177
▁Bea	-14178
▁Bed	-14179
▁Bir	-14180
▁Biz	-14181
▁Ble	-14182
▁Bom	-14183
▁Bot	-14184
▁CKY	-14185
▁COF	-14186
▁Cav	-14187
▁Cri	-14188
▁Cup	-14189
▁Cus	-14190
▁DMC	-14191
▁Dat	-14192
▁DeG	-14193
▁Dec	-14194
▁Dex	-14195
▁Dic	-14196
▁Dil	-14197
▁Dod	-14198
▁Dou	-14199
2'	-14200
60	-14201
8)	-14202
CE	-14203
Da	-14204
Im	-14205
Sy	-14206
fs	-14207
je	-14208
uh	-14209
-40	-14210
Ell	-14211
Hit	-14212
Son	-14213
Ten	-14214
ded	-14215
des	-14216
jas	-14217
len	-14218
nat	-14219
tit	-14220
uis	-14221
wit	-14222
▁RV	-14223
▁SD	-14224
▁Si	-14225
▁TA	-14226
▁TR	-14227
▁YA	-14228
Ever	-14229
acob	-14230
aser	-14231
atti	-14232
ause	-14233
edge	-14234
eter	-14235
etos	-14236
oona	-14237
pher	-14238
▁27.	-14239
▁555	-14240
▁Bud	-14241
▁Dud	-14242
▁Dup	-14243
▁EST	-14244
▁Eko	-14245
▁Few	-14246
▁Flo	-14247
▁Gig	-14248
▁HMV	-14249
▁Hak	-14250
▁Hav	-14251
▁Hep	-14252
▁ICP	-14253
▁Ign	-14254
▁Inu	-14255
▁Iny	-14256
▁Ive	-14257
▁Jem	-14258
▁Joa	-14259
▁Kal	-14260
▁Ken	-14261
▁Kok	-14262
▁Kra	-14263
▁Kut	-14264
▁Kyo	-14265
▁LIT	-14266
▁Liv	-14267
▁Lot	-14268
▁McA	-14269
▁McM	-14270
▁Mew	-14271
▁Mit	-14272
▁Moe	-14273
▁Mol	-14274
▁Muz	-14275
▁NBA	-14276
▁NFL	-14277
▁Nah	-14278
▁Nal	-14279
▁Neo	-14280
▁Nip	-14281
▁Non	-14282
▁Nut	-14283
▁OUT	-14284
▁Obs	-14285
▁Oft	-14286
▁Ont	-14287
▁Orb	-14288
▁PBS	-14289
▁Pel	-14290
▁Pfe	-14291
▁Psy	-14292
▁REO	-14293
▁Reo	-14294
▁Rio	-14295
▁Roc	-14296
▁Roo	-14297
▁SKA	-14298
▁SOS	-14299
./	-14300
16	-14301
48	-14302
AA	-14303
GB	-14304
GN	-14305
fu	-14306
mk	-14307
Lot	-14308
boo	-14309
hea	-14310
pan	-14311
▁",	-14312
▁CI	-14313
▁dj	-14314
▁lu	-14315
▁pc	-14316
▁ti	-14317
Fore	-14318
aloo	-14319
chat	-14320
days	-14321
ding	-14322
hell	-14323
iffs	-14324
pool	-14325
pron	-14326
race	-14327
ulse	-14328
▁600	-14329
▁90%	-14330
▁Fri	-14331
▁NYC	-14332
▁PCD	-14333
▁Rum	-14334
▁SRK	-14335
▁Shu	-14336
▁Sid	-14337
▁Sne	-14338
▁Tem	-14339
▁Vac	-14340
▁Von	-14341
▁WWW	-14342
▁Wag	-14343
▁Wes	-14344
▁Woe	-14345
▁Yin	-14346
▁Zoo	-14347
▁Zut	-14348
▁___	-14349
▁ads	-14350
▁ain	-14351
▁aka	-14352
▁ans	-14353
▁apt	-14354
▁arc	-14355
▁bak	-14356
▁bal	-14357
▁ben	-14358
▁bid	-14359
▁bik	-14360
▁bin	-14361
▁bob	-14362
▁bol	-14363
▁cem	-14364
▁coo	-14365
▁cos	-14366
▁cul	-14367
▁dil	-14368
▁dim	-14369
▁dip	-14370
▁dit	-14371
▁dod	-14372
▁dur	-14373
▁dys	-14374
▁gat	-14375
▁gon	-14376
▁goo	-14377
▁hmm	-14378
▁hog	-14379
▁irr	-14380
▁jar	-14381
▁jet	-14382
▁jew	-14383
▁jug	-14384
▁lan	-14385
▁led	-14386
▁lev	-14387
▁lol	-14388
▁luc	-14389
▁mes	-14390
▁nez	-14391
▁nun	-14392
▁owe	-14393
▁peg	-14394
▁rev	-14395
▁ric	-14396
▁rin	-14397
▁ron	-14398
▁sip	-14399
")	-14400
17	-14401
GE	-14402
IG	-14403
Po	-14404
Ty	-14405
tw	-14406
Spe	-14407
Wet	-14408
edu	-14409
eye	-14410
fan	-14411
hek	-14412
ndi	-14413
rec	-14414
sor	-14415
tal	-14416
▁"8	-14417
▁64	-14418
▁ET	-14419
▁IQ	-14420
▁Ib	-14421
▁PO	-14422
▁ST	-14423
▁ax	-14424
▁ou	-14425
abes	-14426
acho	-14427
casm	-14428
etah	-14429
heep	-14430
send	-14431
ynic	-14432
▁Jin	-14433
▁Kas	-14434
▁MAD	-14435
▁TRL	-14436
▁Tur	-14437
▁kak	-14438
▁mop	-14439
▁ski	-14440
▁spl	-14441
▁sta	-14442
▁sup	-14443
▁tad	-14444
▁tat	-14445
▁umb	-14446
▁upt	-14447
▁usb	-14448
▁vie	-14449
▁vit	-14450
▁wan	-14451
▁wax	-14452
0.00.	-14453
1,000	-14454
April	-14455
Beast	-14456
Buffy	-14457
Count	-14458
Dance	-14459
Diary	-14460
Elvis	-14461
Exorc	-14462
Freak	-14463
Gener	-14464
Gimme	-14465
Girls	-14466
Grand	-14467
Great	-14468
Grind	-14469
Kelly	-14470
Knock	-14471
Magic	-14472
Monty	-14473
Music	-14474
Naked	-14475
Paper	-14476
Power	-14477
Rompe	-14478
Scary	-14479
Shake	-14480
Somet	-14481
Stand	-14482
Stick	-14483
These	-14484
YRICS	-14485
abian	-14486
achey	-14487
acked	-14488
adium	-14489
agher	-14490
ailed	-14491
ameda	-14492
amedy	-14493
ament	-14494
ancid	-14495
anded	-14496
andex	-14497
angel	-14498
aphne	-14499
/7	-14500
14	-14501
3"	-14502
Ge	-14503
Ms	-14504
Qu	-14505
TY	-14506
mn	-14507
wa	-14508
!'.	-14509
Won	-14510
aii	-14511
▁Cd	-14512
▁ko	-14513
Deal	-14514
Miss	-14515
OULD	-14516
achi	-14517
otto	-14518
ouri	-14519
▁Est	-14520
▁Til	-14521
▁gal	-14522
▁jac	-14523
▁som	-14524
adonk	-14525
apper	-14526
aprio	-14527
aring	-14528
arzan	-14529
astly	-14530
aties	-14531
bands	-14532
bbles	-14533
bread	-14534
cards	-14535
chair	-14536
chell	-14537
chick	-14538
cient	-14539
claim	-14540
coast	-14541
cocks	-14542
conce	-14543
ctive	-14544
cules	-14545
diddy	-14546
eless	-14547
entry	-14548
erers	-14549
erget	-14550
erior	-14551
ermit	-14552
escri	-14553
eshia	-14554
esity	-14555
eters	-14556
etics	-14557
first	-14558
forge	-14559
girls	-14560
given	-14561
grade	-14562
hamas	-14563
hamed	-14564
hears	-14565
hetam	-14566
hetti	-14567
ibbon	-14568
icine	-14569
icker	-14570
ietal	-14571
ieves	-14572
ifies	-14573
iggin	-14574
igner	-14575
ilize	-14576
imson	-14577
india	-14578
inead	-14579
inema	-14580
innie	-14581
ipino	-14582
istry	-14583
itals	-14584
itute	-14585
izzes	-14586
jesus	-14587
joyed	-14588
kaban	-14589
kespe	-14590
knock	-14591
laugh	-14592
lines	-14593
lists	-14594
lling	-14595
locke	-14596
maker	-14597
mania	-14598
mares	-14599
masta	-14600
mates	-14601
metal	-14602
nabis	-14603
names	-14604
nered	-14605
ngwie	-14606
nibal	-14607
nings	-14608
oggle	-14609
ogood	-14610
ograp	-14611
ogues	-14612
olean	-14613
olley	-14614
onies	-14615
ooger	-14616
ootie	-14617
orgir	-14618
orial	-14619
orous	-14620
orthy	-14621
orton	-14622
osing	-14623
ossus	-14624
osure	-14625
othel	-14626
otsie	-14627
ousin	-14628
overs	-14629
pered	-14630
pised	-14631
point	-14632
power	-14633
print	-14634
quake	-14635
queen	-14636
rance	-14637
regor	-14638
reput	-14639
riani	-14640
ringe	-14641
riple	-14642
spray	-14643
state	-14644
tendo	-14645
tunes	-14646
uggle	-14647
ummer	-14648
unchy	-14649
ungee	-14650
union	-14651
unked	-14652
urred	-14653
uster	-14654
ustom	-14655
uther	-14656
vably	-14657
vayne	-14658
verty	-14659
watch	-14660
wayne	-14661
weety	-14662
which	-14663
write	-14664
yclef	-14665
yllis	-14666
ymour	-14667
zards	-14668
zeddl	-14669
▁(198	-14670
▁100,	-14671
▁1000	-14672
▁101,	-14673
▁1940	-14674
▁1950	-14675
▁1955	-14676
▁1964	-14677
▁1984	-14678
▁1985	-14679
▁1994	-14680
▁1999	-14681
▁311.	-14682
▁98.9	-14683
▁ABBA	-14684
▁AIDS	-14685
▁Amel	-14686
▁Anka	-14687
▁Babe	-14688
▁Base	-14689
▁Bean	-14690
▁Beer	-14691
▁Bene	-14692
▁Bent	-14693
▁Bert	-14694
▁Blow	-14695
▁Blvd	-14696
▁Bong	-14697
▁Bozo	-14698
▁Bret	-14699
▁Bron	-14700
▁Budd	-14701
▁Canc	-14702
▁Chat	-14703
▁Chis	-14704
▁Coco	-14705
▁Coke	-14706
▁Cory	-14707
▁Crus	-14708
▁Cute	-14709
▁Deer	-14710
▁Dime	-14711
▁Drum	-14712
▁Eats	-14713
▁Eazy	-14714
▁Else	-14715
▁Envy	-14716
▁Epip	-14717
▁Epps	-14718
▁Etta	-14719
▁Ewan	-14720
▁Exce	-14721
▁Fade	-14722
▁Feat	-14723
▁Fido	-14724
▁Food	-14725
▁Fung	-14726
▁GOOD	-14727
▁Gees	-14728
▁Glam	-14729
▁Goog	-14730
▁Grac	-14731
▁Gris	-14732
▁Gund	-14733
▁Gyps	-14734
▁HDTV	-14735
▁Hang	-14736
▁Happ	-14737
▁Hips	-14738
▁Horn	-14739
▁Hush	-14740
▁Hust	-14741
▁IMDb	-14742
▁INXS	-14743
▁Isab	-14744
▁Jasm	-14745
▁Jerm	-14746
▁Joss	-14747
▁Katt	-14748
▁Kris	-14749
▁LOTR	-14750
▁Lace	-14751
▁Lana	-14752
▁Lick	-14753
▁Lilo	-14754
▁Lita	-14755
▁Lola	-14756
▁Lowe	-14757
▁Marg	-14758
▁Mase	-14759
▁Math	-14760
▁Maxx	-14761
▁Ment	-14762
▁Mila	-14763
▁Mimi	-14764
▁Mode	-14765
▁Mraz	-14766
▁Nate	-14767
▁Nazi	-14768
▁Omen	-14769
▁Ones	-14770
▁Oops	-14771
▁Oral	-14772
▁Pack	-14773
▁Pigs	-14774
▁Pimp	-14775
▁Plac	-14776
▁Polo	-14777
▁Pond	-14778
▁Pool	-14779
▁Pope	-14780
▁Prue	-14781
▁Puff	-14782
▁Raid	-14783
▁Rani	-14784
▁Reba	-14785
▁Reed	-14786
▁Rozi	-14787
▁Sade	-14788
▁Sake	-14789
▁Seac	-14790
▁Seek	-14791
▁Sell	-14792
▁Shaq	-14793
▁Shaz	-14794
▁Shin	-14795
▁Shoe	-14796
▁Size	-14797
▁Soup	-14798
▁Spin	-14799
▁Spit	-14800
▁Styx	-14801
▁Suit	-14802
▁Sull	-14803
▁Taco	-14804
▁Tama	-14805
▁Tend	-14806
▁Tenn	-14807
▁Tess	-14808
▁TiVo	-14809
▁Tink	-14810
▁Tiny	-14811
▁Tivo	-14812
▁Toad	-14813
▁Told	-14814
▁Tonk	-14815
▁Tori	-14816
▁Torn	-14817
▁Tort	-14818
▁Tour	-14819
▁Trio	-14820
▁Trip	-14821
▁Tune	-14822
▁Twin	-14823
▁Unpl	-14824
▁Veng	-14825
▁Vert	-14826
▁Viet	-14827
▁Vito	-14828
▁Viva	-14829
▁Ways	-14830
▁Weas	-14831
▁Wine	-14832
▁Wrap	-14833
▁Xmen	-14834
▁YOUR	-14835
▁Yard	-14836
▁Yung	-14837
▁Zane	-14838
▁Zulu	-14839
▁aest	-14840
▁anal	-14841
▁ange	-14842
▁attr	-14843
▁aura	-14844
▁bake	-14845
▁batt	-14846
▁bean	-14847
▁bets	-14848
▁boom	-14849
▁bord	-14850
▁bunk	-14851
▁buns	-14852
▁carn	-14853
▁chim	-14854
▁chop	-14855
▁clap	-14856
▁coke	-14857
▁cone	-14858
▁cork	-14859
▁cosm	-14860
▁deck	-14861
▁deed	-14862
▁deem	-14863
▁desk	-14864
▁domo	-14865
▁dunk	-14866
▁ease	-14867
▁ella	-14868
▁exha	-14869
▁eyed	-14870
▁fare	-14871
▁fave	-14872
▁fist	-14873
▁flex	-14874
▁flir	-14875
▁foam	-14876
▁folk	-14877
▁fork	-14878
▁gira	-14879
▁gled	-14880
▁gory	-14881
▁gosh	-14882
▁gown	-14883
▁gree	-14884
▁groo	-14885
▁hack	-14886
▁haun	-14887
▁hire	-14888
▁holl	-14889
▁homo	-14890
▁hunt	-14891
▁hush	-14892
▁icon	-14893
▁idle	-14894
▁inev	-14895
▁infl	-14896
▁jack	-14897
▁jugg	-14898
▁kits	-14899
▁korn	-14900
▁lake	-14901
▁leap	-14902
▁maid	-14903
▁mary	-14904
▁melt	-14905
▁meth	-14906
▁mime	-14907
▁mock	-14908
▁mort	-14909
▁nets	-14910
▁noon	-14911
▁nuis	-14912
▁oral	-14913
▁orig	-14914
▁outs	-14915
▁pace	-14916
▁pans	-14917
▁papa	-14918
▁patt	-14919
▁perf	-14920
▁poke	-14921
▁pond	-14922
▁rage	-14923
▁rave	-14924
▁rely	-14925
▁rubb	-14926
▁sacr	-14927
▁sane	-14928
▁seal	-14929
▁seas	-14930
▁shed	-14931
▁sher	-14932
▁silk	-14933
▁sins	-14934
▁sket	-14935
▁skyd	-14936
▁slam	-14937
▁snot	-14938
▁sock	-14939
▁soph	-14940
▁spun	-14941
▁stip	-14942
▁stro	-14943
▁stub	-14944
▁sync	-14945
▁tack	-14946
▁tech	-14947
▁thee	-14948
▁tied	-14949
▁tonk	-14950
▁tsun	-14951
▁tuck	-14952
▁vice	-14953
▁vist	-14954
▁voca	-14955
▁wars	-14956
******	-14957
-8004.	-14958
67-530	-14959
Dreams	-14960
Excuse	-14961
Friend	-14962
Grillz	-14963
Listen	-14964
Moulin	-14965
Played	-14966
Pretty	-14967
Purple	-14968
Simple	-14969
acaine	-14970
achete	-14971
adgets	-14972
agmire	-14973
agraph	-14974
ailing	-14975
ainian	-14976
aining	-14977
aitlin	-14978
alator	-14979
allone	-14980
amount	-14981
aneous	-14982
annabe	-14983
anyone	-14984
apoint	-14985
arence	-14986
arsons	-14987
astern	-14988
bidden	-14989
binobl	-14990
bloodz	-14991
bulary	-14992
castle	-14993
center	-14994
cheats	-14995
consin	-14996
cripts	-14997
ctuate	-14998
cution	-14999
derick	-15000
eliner	-15001
enders	-15002
entral	-15003
ercise	-15004
erties	-15005
fected	-15006
fusion	-15007
gedies	-15008
giving	-15009
gliest	-15010
guided	-15011
harine	-15012
hishek	-15013
iality	-15014
icidal	-15015
iented	-15016
iments	-15017
incere	-15018
inions	-15019
irited	-15020
itated	-15021
itious	-15022
itters	-15023
itunes	-15024
launch	-15025
ledore	-15026
lejnik	-15027
lihood	-15028
minute	-15029
mitted	-15030
nesota	-15031
ocaine	-15032
ockers	-15033
ocracy	-15034
olitan	-15035
ollyfm	-15036
ombone	-15037
omever	-15038
onesia	-15039
oodles	-15040
opatra	-15041
orting	-15042
oscope	-15043
osedly	-15044
ousand	-15045
ousers	-15046
pector	-15047
phonic	-15048
placed	-15049
played	-15050
raggle	-15051
raiser	-15052
renade	-15053
rences	-15054
rested	-15055
ribean	-15056
ricane	-15057
rissom	-15058
rocker	-15059
roller	-15060
rupted	-15061
santab	-15062
search	-15063
severe	-15064
shadow	-15065
soever	-15066
sterix	-15067
teenth	-15068
titled	-15069
titles	-15070
uclear	-15071
ulated	-15072
urally	-15073
usions	-15074
ustler	-15075
vernor	-15076
xually	-15077
▁(2005	-15078
▁1961.	-15079
▁1983.	-15080
▁1989.	-15081
▁1993.	-15082
▁1994,	-15083
▁1994.	-15084
▁1998,	-15085
▁2001,	-15086
▁2002.	-15087
▁2003.	-15088
▁2005,	-15089
▁Actor	-15090
▁Aiden	-15091
▁Alamo	-15092
▁Alias	-15093
▁Allan	-15094
▁Aloud	-15095
▁Alpha	-15096
▁Anast	-15097
▁Anger	-15098
▁Angle	-15099
▁Aquar	-15100
▁Ariel	-15101
▁Attic	-15102
▁Balls	-15103
▁Bambi	-15104
▁Bears	-15105
▁Bebop	-15106
▁Benji	-15107
▁Biker	-15108
▁Blade	-15109
▁Blair	-15110
▁Blake	-15111
▁Bolog	-15112
▁Brass	-15113
▁Brett	-15114
▁Brody	-15115
▁Brook	-15116
▁Bunch	-15117
▁Burns	-15118
▁Cagle	-15119
▁Calls	-15120
▁Cheve	-15121
▁Chose	-15122
▁Chyna	-15123
▁Cindy	-15124
▁Clara	-15125
▁Cocon	-15126
▁Comic	-15127
▁Corin	-15128
▁Croft	-15129
▁Crows	-15130
▁Cruel	-15131
▁Crust	-15132
▁Cuban	-15133
▁Curse	-15134
▁Cyndi	-15135
▁Damon	-15136
▁Darko	-15137
▁Demon	-15138
▁Drugs	-15139
▁Drums	-15140
▁Durst	-15141
▁EVERY	-15142
▁Eagle	-15143
▁Edgar	-15144
▁Empty	-15145
▁Extra	-15146
▁Fairy	-15147
▁Fanta	-15148
▁FedEx	-15149
▁Flags	-15150
▁Flair	-15151
▁Found	-15152
▁Fried	-15153
▁Frost	-15154
▁Gaara	-15155
▁Goodf	-15156
▁Group	-15157
▁Guard	-15158
▁Hanky	-15159
▁Heidi	-15160
▁Human	-15161
▁Illeg	-15162
▁Indub	-15163
▁Intel	-15164
▁Ipods	-15165
▁Italy	-15166
▁Jacko	-15167
▁Jaime	-15168
▁Jeans	-15169
▁Jigga	-15170
▁Jonny	-15171
▁Judge	-15172
▁Juicy	-15173
▁Kelis	-15174
▁Kelli	-15175
▁Kerry	-15176
▁Kitty	-15177
▁Knife	-15178
▁Krall	-15179
▁Leann	-15180
▁Lenny	-15181
▁Liver	-15182
▁Looks	-15183
▁Mamba	-15184
▁Maver	-15185
▁Milby	-15186
▁Misty	-15187
▁Mommy	-15188
▁Moody	-15189
▁Motor	-15190
▁Mouth	-15191
▁Muniz	-15192
▁NSYNC	-15193
▁Naked	-15194
▁Naomi	-15195
▁Nigel	-15196
▁Noble	-15197
▁Norah	-15198
▁Numan	-15199
▁Oasis	-15200
▁Oates	-15201
▁Offer	-15202
▁Olymp	-15203
▁Outta	-15204
▁Ozzie	-15205
▁Pablo	-15206
▁Padme	-15207
▁Pages	-15208
▁Patti	-15209
▁Peggy	-15210
▁Phish	-15211
▁Piper	-15212
▁Pixar	-15213
▁Plant	-15214
▁Pleas	-15215
▁Poker	-15216
▁Posse	-15217
▁Pound	-15218
▁Pride	-15219
▁Proof	-15220
▁Puffy	-15221
▁Ranch	-15222
▁Range	-15223
▁Rated	-15224
▁Ready	-15225
▁Redux	-15226
▁Relax	-15227
▁Renee	-15228
▁Riley	-15229
▁Robot	-15230
▁Roman	-15231
▁Rompe	-15232
▁Roxio	-15233
▁Ruben	-15234
▁Rubio	-15235
▁Saint	-15236
▁Sales	-15237
▁Sandy	-15238
▁Sciss	-15239
▁Scree	-15240
▁Seems	-15241
▁Segal	-15242
▁Seger	-15243
▁Shall	-15244
▁Shame	-15245
▁Share	-15246
▁Sharp	-15247
▁Shaun	-15248
▁Sheen	-15249
▁Sheep	-15250
▁Shine	-15251
▁Sigur	-15252
▁Slash	-15253
▁Smash	-15254
▁Snake	-15255
▁Spawn	-15256
▁Speak	-15257
▁Spiel	-15258
▁Steal	-15259
▁Strip	-15260
▁Stump	-15261
▁Takes	-15262
▁Tesla	-15263
▁Theft	-15264
▁Toast	-15265
▁Tracy	-15266
▁Turns	-15267
▁Ucker	-15268
▁Ultra	-15269
▁Venom	-15270
▁Verse	-15271
▁Verve	-15272
▁Vivek	-15273
▁Waldo	-15274
▁Wally	-15275
▁Warez	-15276
▁Weeps	-15277
▁Wonka	-15278
▁Yeahs	-15279
▁aardv	-15280
▁accum	-15281
▁adopt	-15282
▁alleg	-15283
▁allot	-15284
▁anten	-15285
▁appet	-15286
▁argue	-15287
▁armed	-15288
▁awoke	-15289
▁baked	-15290
▁banks	-15291
▁bloom	-15292
▁blown	-15293
▁blows	-15294
▁boobs	-15295
▁bossy	-15296
▁brave	-15297
▁bucks	-15298
▁bunny	-15299
▁cakes	-15300
▁catal	-15301
▁cello	-15302
▁cells	-15303
▁cemet	-15304
▁chalk	-15305
▁chips	-15306
▁choke	-15307
▁clerk	-15308
▁coinc	-15309
▁combo	-15310
▁cough	-15311
▁crawl	-15312
▁crown	-15313
▁crude	-15314
▁curly	-15315
▁curvy	-15316
▁cycle	-15317
▁denim	-15318
▁dense	-15319
▁derog	-15320
▁ditty	-15321
▁drank	-15322
▁dudes	-15323
▁dummy	-15324
▁dwell	-15325
▁eMule	-15326
▁earns	-15327
▁elbow	-15328
▁emule	-15329
▁enemy	-15330
▁enhan	-15331
▁enthr	-15332
▁envel	-15333
▁escap	-15334
▁excel	-15335
▁exhib	-15336
▁explo	-15337
▁facet	-15338
▁flags	-15339
▁flame	-15340
▁flips	-15341
▁flirt	-15342
▁float	-15343
▁frogs	-15344
▁frost	-15345
▁fudge	-15346
▁geeks	-15347
▁girly	-15348
▁gotta	-15349
▁gravy	-15350
▁hangs	-15351
▁hidey	-15352
▁hindi	-15353
▁hokey	-15354
▁honor	-15355
▁horny	-15356
▁humps	-15357
▁imper	-15358
▁inaut	-15359
▁incom	-15360
▁indie	-15361
▁inher	-15362
▁jacks	-15363
▁jerks	-15364
▁joked	-15365
▁kazaa	-15366
▁knife	-15367
▁latin	-15368
▁lawns	-15369
▁lemon	-15370
▁libra	-15371
▁liver	-15372
▁loads	-15373
▁mamma	-15374
▁manor	-15375
▁marks	-15376
▁meets	-15377
▁messy	-15378
▁meter	-15379
▁micro	-15380
▁moist	-15381
▁moody	-15382
▁moose	-15383
▁moral	-15384
▁motto	-15385
▁mount	-15386
▁nanny	-15387
▁noses	-15388
▁notch	-15389
▁onion	-15390
▁opens	-15391
▁orbit	-15392
▁panty	-15393
▁pasta	-15394
▁penny	-15395
▁pipes	-15396
▁plots	-15397
▁pokes	-15398
▁polka	-15399
▁posed	-15400
▁pseud	-15401
▁putty	-15402
▁raven	-15403
▁razor	-15404
▁rehab	-15405
▁resid	-15406
▁rifle	-15407
▁roots	-15408
▁route	-15409
▁ruins	-15410
▁scars	-15411
▁scoop	-15412
▁sends	-15413
▁shill	-15414
▁sized	-15415
▁sizes	-15416
▁skeet	-15417
[...]
